{
  "version": "1.0",
  "truncation": null,
  "padding": null,
  "added_tokens": [
    {
      "id": 0,
      "content": "[UNK]",
      "single_word": false,
      "lstrip": false,
      "rstrip": false,
      "normalized": false,
      "special": true
    },
    {
      "id": 1,
      "content": "[BOS]",
      "single_word": false,
      "lstrip": false,
      "rstrip": false,
      "normalized": false,
      "special": true
    },
    {
      "id": 2,
      "content": "[EOS]",
      "single_word": false,
      "lstrip": false,
      "rstrip": false,
      "normalized": false,
      "special": true
    },
    {
      "id": 3,
      "content": "[PAD]",
      "single_word": false,
      "lstrip": false,
      "rstrip": false,
      "normalized": false,
      "special": true
    }
  ],
  "normalizer": null,
  "pre_tokenizer": {
    "type": "Whitespace"
  },
  "post_processor": {
    "type": "TemplateProcessing",
    "single": [
      {
        "SpecialToken": {
          "id": "[BOS]",
          "type_id": 0
        }
      },
      {
        "Sequence": {
          "id": "A",
          "type_id": 0
        }
      },
      {
        "SpecialToken": {
          "id": "[EOS]",
          "type_id": 0
        }
      }
    ],
    "pair": [
      {
        "Sequence": {
          "id": "A",
          "type_id": 0
        }
      },
      {
        "Sequence": {
          "id": "B",
          "type_id": 1
        }
      }
    ],
    "special_tokens": {
      "[BOS]": {
        "id": "[BOS]",
        "ids": [
          1
        ],
        "tokens": [
          "[BOS]"
        ]
      },
      "[EOS]": {
        "id": "[EOS]",
        "ids": [
          2
        ],
        "tokens": [
          "[EOS]"
        ]
      }
    }
  },
  "decoder": null,
  "model": {
    "type": "BPE",
    "dropout": null,
    "unk_token": "[UNK]",
    "continuing_subword_prefix": null,
    "end_of_word_suffix": null,
    "fuse_unk": false,
    "byte_fallback": false,
    "ignore_merges": false,
    "vocab": {
      "[UNK]": 0,
      "[BOS]": 1,
      "[EOS]": 2,
      "[PAD]": 3,
      "\u0001": 4,
      "\u0007": 5,
      "\u000f": 6,
      "!": 7,
      "\"": 8,
      "#": 9,
      "$": 10,
      "%": 11,
      "&": 12,
      "'": 13,
      "(": 14,
      ")": 15,
      "*": 16,
      "+": 17,
      ",": 18,
      "-": 19,
      ".": 20,
      "/": 21,
      "0": 22,
      "1": 23,
      "2": 24,
      "3": 25,
      "4": 26,
      "5": 27,
      "6": 28,
      "7": 29,
      "8": 30,
      "9": 31,
      ":": 32,
      ";": 33,
      "<": 34,
      "=": 35,
      ">": 36,
      "?": 37,
      "A": 38,
      "B": 39,
      "C": 40,
      "D": 41,
      "E": 42,
      "F": 43,
      "G": 44,
      "H": 45,
      "I": 46,
      "J": 47,
      "K": 48,
      "L": 49,
      "M": 50,
      "N": 51,
      "O": 52,
      "P": 53,
      "Q": 54,
      "R": 55,
      "S": 56,
      "T": 57,
      "U": 58,
      "V": 59,
      "W": 60,
      "X": 61,
      "Y": 62,
      "Z": 63,
      "[": 64,
      "\\": 65,
      "]": 66,
      "^": 67,
      "_": 68,
      "`": 69,
      "a": 70,
      "b": 71,
      "c": 72,
      "d": 73,
      "e": 74,
      "f": 75,
      "g": 76,
      "h": 77,
      "i": 78,
      "j": 79,
      "k": 80,
      "l": 81,
      "m": 82,
      "n": 83,
      "o": 84,
      "p": 85,
      "q": 86,
      "r": 87,
      "s": 88,
      "t": 89,
      "u": 90,
      "v": 91,
      "w": 92,
      "x": 93,
      "y": 94,
      "z": 95,
      "{": 96,
      "|": 97,
      "}": 98,
      "~": 99,
      "§": 100,
      "«": 101,
      "­": 102,
      "°": 103,
      "»": 104,
      "Ç": 105,
      "à": 106,
      "á": 107,
      "â": 108,
      "å": 109,
      "ç": 110,
      "è": 111,
      "é": 112,
      "ê": 113,
      "ë": 114,
      "í": 115,
      "î": 116,
      "ô": 117,
      "ù": 118,
      "û": 119,
      "ü": 120,
      "ł": 121,
      "œ": 122,
      "Ё": 123,
      "Ѕ": 124,
      "А": 125,
      "Б": 126,
      "В": 127,
      "Г": 128,
      "Д": 129,
      "Е": 130,
      "Ж": 131,
      "З": 132,
      "И": 133,
      "Й": 134,
      "К": 135,
      "Л": 136,
      "М": 137,
      "Н": 138,
      "О": 139,
      "П": 140,
      "Р": 141,
      "С": 142,
      "Т": 143,
      "У": 144,
      "Ф": 145,
      "Х": 146,
      "Ц": 147,
      "Ч": 148,
      "Ш": 149,
      "Щ": 150,
      "Ъ": 151,
      "Ы": 152,
      "Ь": 153,
      "Э": 154,
      "Ю": 155,
      "Я": 156,
      "а": 157,
      "б": 158,
      "в": 159,
      "г": 160,
      "д": 161,
      "е": 162,
      "ж": 163,
      "з": 164,
      "и": 165,
      "й": 166,
      "к": 167,
      "л": 168,
      "м": 169,
      "н": 170,
      "о": 171,
      "п": 172,
      "р": 173,
      "с": 174,
      "т": 175,
      "у": 176,
      "ф": 177,
      "х": 178,
      "ц": 179,
      "ч": 180,
      "ш": 181,
      "щ": 182,
      "ъ": 183,
      "ы": 184,
      "ь": 185,
      "э": 186,
      "ю": 187,
      "я": 188,
      "ё": 189,
      "ђ": 190,
      "њ": 191,
      "Ѣ": 192,
      "ѣ": 193,
      "Ѳ": 194,
      "ѳ": 195,
      "–": 196,
      "—": 197,
      "’": 198,
      "“": 199,
      "”": 200,
      "„": 201,
      "•": 202,
      "…": 203,
      "‹": 204,
      "›": 205,
      "€": 206,
      "№": 207,
      "╕": 208,
      "╝": 209,
      "╟": 210,
      "╧": 211,
      "╫": 212,
      "то": 213,
      "на": 214,
      "но": 215,
      "не": 216,
      "ст": 217,
      "по": 218,
      "ко": 219,
      "ал": 220,
      "го": 221,
      "ро": 222,
      "ра": 223,
      "ни": 224,
      "ка": 225,
      "во": 226,
      "ре": 227,
      "ло": 228,
      "ли": 229,
      "ри": 230,
      "ла": 231,
      "ве": 232,
      "ть": 233,
      "те": 234,
      "ва": 235,
      "де": 236,
      "за": 237,
      "до": 238,
      "ле": 239,
      "ся": 240,
      "да": 241,
      "ны": 242,
      "же": 243,
      "се": 244,
      "ме": 245,
      "мо": 246,
      "че": 247,
      "ль": 248,
      "бы": 249,
      "ви": 250,
      "сь": 251,
      "ми": 252,
      "ки": 253,
      "та": 254,
      "--": 255,
      "что": 256,
      "ру": 257,
      "ну": 258,
      "от": 259,
      "вы": 260,
      "со": 261,
      "ти": 262,
      "ди": 263,
      "про": 264,
      "му": 265,
      "ше": 266,
      "пе": 267,
      "бе": 268,
      "бо": 269,
      "при": 270,
      "ма": 271,
      "хо": 272,
      "он": 273,
      "ня": 274,
      "ку": 275,
      "ду": 276,
      "чи": 277,
      "сто": 278,
      "ши": 279,
      "ста": 280,
      "ча": 281,
      "ля": 282,
      "си": 283,
      "ала": 284,
      "его": 285,
      "из": 286,
      "нно": 287,
      "са": 288,
      "все": 289,
      "ры": 290,
      "ска": 291,
      "как": 292,
      "раз": 293,
      "это": 294,
      "об": 295,
      "лу": 296,
      "нь": 297,
      "ет": 298,
      "жи": 299,
      "ты": 300,
      "ще": 301,
      "али": 302,
      "ско": 303,
      "сти": 304,
      "бу": 305,
      "лю": 306,
      "ря": 307,
      "па": 308,
      "ние": 309,
      "ту": 310,
      "пре": 311,
      "сть": 312,
      "под": 313,
      "га": 314,
      "пи": 315,
      "сво": 316,
      "зна": 317,
      "нны": 318,
      "ги": 319,
      "лся": 320,
      "вал": 321,
      "ша": 322,
      "вер": 323,
      "лы": 324,
      "це": 325,
      "она": 326,
      "гово": 327,
      "мы": 328,
      "гда": 329,
      "ба": 330,
      "кото": 331,
      "тель": 332,
      "рас": 333,
      "сказ": 334,
      "щи": 335,
      "ву": 336,
      "кой": 337,
      "би": 338,
      "ной": 339,
      "лько": 340,
      "жа": 341,
      "ее": 342,
      "ния": 343,
      "су": 344,
      "дру": 345,
      "пу": 346,
      "так": 347,
      "пере": 348,
      "гла": 349,
      "чу": 350,
      "ца": 351,
      "гу": 352,
      "ски": 353,
      "сле": 354,
      "было": 355,
      "ей": 356,
      "ды": 357,
      "ком": 358,
      "ало": 359,
      "говори": 360,
      "рь": 361,
      "ск": 362,
      "ться": 363,
      "дь": 364,
      "ного": 365,
      "аль": 366,
      "ный": 367,
      "спо": 368,
      "ство": 369,
      "По": 370,
      "пра": 371,
      "вши": 372,
      "мне": 373,
      "ке": 374,
      "сте": 375,
      "меня": 376,
      "ему": 377,
      "их": 378,
      "тре": 379,
      "шь": 380,
      "голо": 381,
      "вз": 382,
      "од": 383,
      "сло": 384,
      "том": 385,
      "вая": 386,
      "ем": 387,
      "воз": 388,
      "жно": 389,
      "ная": 390,
      "тся": 391,
      "На": 392,
      "бя": 393,
      "лась": 394,
      "Он": 395,
      "был": 396,
      "сказал": 397,
      "только": 398,
      "слу": 399,
      "когда": 400,
      "мя": 401,
      "ные": 402,
      "гля": 403,
      "сли": 404,
      "еще": 405,
      "ходи": 406,
      "уже": 407,
      "чно": 408,
      "ней": 409,
      "дол": 410,
      "стра": 411,
      "ха": 412,
      "дя": 413,
      "сту": 414,
      "ков": 415,
      "него": 416,
      "сы": 417,
      "каз": 418,
      "Не": 419,
      "которы": 420,
      "ным": 421,
      "нул": 422,
      "тельно": 423,
      "сме": 424,
      "ром": 425,
      "чем": 426,
      "жал": 427,
      "вой": 428,
      "чего": 429,
      "вно": 430,
      "шел": 431,
      "Ма": 432,
      "Да": 433,
      "ер": 434,
      "ных": 435,
      "дет": 436,
      "без": 437,
      "боль": 438,
      "Но": 439,
      "стве": 440,
      "вать": 441,
      "лове": 442,
      "нее": 443,
      "пя": 444,
      "ним": 445,
      "дно": 446,
      "смо": 447,
      "дел": 448,
      "Ка": 449,
      "пред": 450,
      "тя": 451,
      "шу": 452,
      "ров": 453,
      "ную": 454,
      "стоя": 455,
      "ался": 456,
      "лись": 457,
      "дела": 458,
      "челове": 459,
      "пы": 460,
      "нов": 461,
      "или": 462,
      "оче": 463,
      "вст": 464,
      "для": 465,
      "гра": 466,
      "вре": 467,
      "ща": 468,
      "вле": 469,
      "тем": 470,
      "зо": 471,
      "три": 472,
      "стро": 473,
      "пол": 474,
      "кон": 475,
      "цо": 476,
      "перь": 477,
      "фи": 478,
      "проси": 479,
      "глаза": 480,
      "сно": 481,
      "вали": 482,
      "чал": 483,
      "мал": 484,
      "ге": 485,
      "нный": 486,
      "кры": 487,
      "им": 488,
      "друг": 489,
      "быть": 490,
      "чер": 491,
      "того": 492,
      "ют": 493,
      "вала": 494,
      "ци": 495,
      "кто": 496,
      "све": 497,
      "ясь": 498,
      "лось": 499,
      "чь": 500,
      "пер": 501,
      "они": 502,
      "рез": 503,
      "была": 504,
      "себя": 505,
      "ис": 506,
      "кра": 507,
      "отве": 508,
      "ется": 509,
      "оста": 510,
      "тно": 511,
      "зы": 512,
      "очень": 513,
      "жен": 514,
      "нем": 515,
      "дер": 516,
      "вот": 517,
      "вс": 518,
      "пле": 519,
      "зи": 520,
      "теперь": 521,
      "нима": 522,
      "дин": 523,
      "эти": 524,
      "нии": 525,
      "вич": 526,
      "пла": 527,
      "вя": 528,
      "шо": 529,
      "жет": 530,
      "даже": 531,
      "сты": 532,
      "дал": 533,
      "которо": 534,
      "после": 535,
      "само": 536,
      "ез": 537,
      "ном": 538,
      "дом": 539,
      "алось": 540,
      "кого": 541,
      "Ва": 542,
      "нет": 543,
      "сла": 544,
      "над": 545,
      "име": 546,
      "тому": 547,
      "дей": 548,
      "жде": 549,
      "Ко": 550,
      "жу": 551,
      "Са": 552,
      "вля": 553,
      "бро": 554,
      "бра": 555,
      "цу": 556,
      "говорил": 557,
      "кру": 558,
      "ками": 559,
      "кое": 560,
      "вас": 561,
      "ете": 562,
      "бле": 563,
      "цы": 564,
      "хот": 565,
      "чтобы": 566,
      "нием": 567,
      "тра": 568,
      "поло": 569,
      "кий": 570,
      "кри": 571,
      "ин": 572,
      "кие": 573,
      "пять": 574,
      "Она": 575,
      "кре": 576,
      "воль": 577,
      "обра": 578,
      "зя": 579,
      "мол": 580,
      "вше": 581,
      "кая": 582,
      "ний": 583,
      "слы": 584,
      "были": 585,
      "шка": 586,
      "тил": 587,
      "Та": 588,
      "доро": 589,
      "вый": 590,
      "нд": 591,
      "вам": 592,
      "заме": 593,
      "ский": 594,
      "хи": 595,
      "мой": 596,
      "час": 597,
      "Ива": 598,
      "сер": 599,
      "Ни": 600,
      "жиз": 601,
      "ющи": 602,
      "нной": 603,
      "нные": 604,
      "стви": 605,
      "сторо": 606,
      "глу": 607,
      "гру": 608,
      "вдруг": 609,
      "род": 610,
      "крас": 611,
      "сказала": 612,
      "ное": 613,
      "себе": 614,
      "них": 615,
      "сколько": 616,
      "спроси": 617,
      "если": 618,
      "тот": 619,
      "ник": 620,
      "улы": 621,
      "коне": 622,
      "ев": 623,
      "день": 624,
      "ались": 625,
      "будь": 626,
      "хоро": 627,
      "ской": 628,
      "может": 629,
      "каза": 630,
      "смотре": 631,
      "друго": 632,
      "всем": 633,
      "алась": 634,
      "мог": 635,
      "где": 636,
      "два": 637,
      "перед": 638,
      "ства": 639,
      "лицо": 640,
      "лов": 641,
      "За": 642,
      "Мо": 643,
      "ким": 644,
      "мер": 645,
      "кро": 646,
      "ску": 647,
      "нулся": 648,
      "время": 649,
      "тру": 650,
      "кня": 651,
      "дума": 652,
      "бла": 653,
      "подо": 654,
      "боле": 655,
      "Ну": 656,
      "пря": 657,
      "Па": 658,
      "сказа": 659,
      "моло": 660,
      "этого": 661,
      "чув": 662,
      "бли": 663,
      "есть": 664,
      "ничего": 665,
      "Вы": 666,
      "там": 667,
      "Это": 668,
      "мину": 669,
      "человек": 670,
      "нибудь": 671,
      "полу": 672,
      "спе": 673,
      "будет": 674,
      "той": 675,
      "нови": 676,
      "шла": 677,
      "Ра": 678,
      "ского": 679,
      "надо": 680,
      "поч": 681,
      "тол": 682,
      "чувство": 683,
      "люби": 684,
      "Але": 685,
      "тер": 686,
      "стью": 687,
      "\".": 688,
      "хоте": 689,
      "ливо": 690,
      "нным": 691,
      "ху": 692,
      "ран": 693,
      "вто": 694,
      "ор": 695,
      "комна": 696,
      "вшись": 697,
      "сам": 698,
      "уж": 699,
      "нное": 700,
      "опять": 701,
      "нных": 702,
      "нас": 703,
      "вся": 704,
      "нула": 705,
      "ника": 706,
      "ню": 707,
      "тво": 708,
      "вели": 709,
      "этот": 710,
      "ешь": 711,
      "пло": 712,
      "лет": 713,
      "ными": 714,
      "ких": 715,
      "можно": 716,
      "вра": 717,
      "рю": 718,
      "То": 719,
      "две": 720,
      "зь": 721,
      "Сам": 722,
      "бой": 723,
      "Пет": 724,
      "ок": 725,
      "тал": 726,
      "зу": 727,
      "рти": 728,
      "тро": 729,
      "тебя": 730,
      "стал": 731,
      "тут": 732,
      "йте": 733,
      "потому": 734,
      "мни": 735,
      "думал": 736,
      "образ": 737,
      "Ли": 738,
      "\",": 739,
      "слова": 740,
      "буд": 741,
      "жда": 742,
      "Про": 743,
      "зе": 744,
      "вался": 745,
      "фа": 746,
      "обе": 747,
      "Что": 748,
      "гин": 749,
      "Во": 750,
      "жду": 751,
      "потом": 752,
      "нного": 753,
      "вил": 754,
      "благо": 755,
      "Ве": 756,
      "дня": 757,
      "тоже": 758,
      "стя": 759,
      "вший": 760,
      "взгля": 761,
      "который": 762,
      "ках": 763,
      "дво": 764,
      "ман": 765,
      "стре": 766,
      "виде": 767,
      "будто": 768,
      "чет": 769,
      "сча": 770,
      "один": 771,
      "дело": 772,
      "прия": 773,
      "нове": 774,
      "дов": 775,
      "Ро": 776,
      "ех": 777,
      "тебе": 778,
      "улыб": 779,
      "вало": 780,
      "чала": 781,
      "кла": 782,
      "гор": 783,
      "своей": 784,
      "вь": 785,
      "щу": 786,
      "которые": 787,
      "всегда": 788,
      "всех": 789,
      "Бо": 790,
      "сказать": 791,
      "тив": 792,
      "рая": 793,
      "хва": 794,
      "вым": 795,
      "осо": 796,
      "продол": 797,
      "дви": 798,
      "Го": 799,
      "До": 800,
      "Алек": 801,
      "теле": 802,
      "стно": 803,
      "ожи": 804,
      "сей": 805,
      "этом": 806,
      "Вот": 807,
      "зем": 808,
      "тор": 809,
      "одна": 810,
      "более": 811,
      "ум": 812,
      "нная": 813,
      "тов": 814,
      "больше": 815,
      "шая": 816,
      "шно": 817,
      "шли": 818,
      "сом": 819,
      "чай": 820,
      "реши": 821,
      "жение": 822,
      "уме": 823,
      "дра": 824,
      "несколько": 825,
      "вет": 826,
      "конец": 827,
      "свою": 828,
      "нув": 829,
      "бес": 830,
      "ред": 831,
      "шки": 832,
      "руки": 833,
      "дро": 834,
      "почти": 835,
      ",--": 836,
      "Как": 837,
      "силь": 838,
      "доволь": 839,
      "лег": 840,
      "нию": 841,
      "гро": 842,
      "совер": 843,
      "спросил": 844,
      "поз": 845,
      "дой": 846,
      "въ": 847,
      "весе": 848,
      "свои": 849,
      "Все": 850,
      "встре": 851,
      "много": 852,
      "вые": 853,
      "точно": 854,
      "ъя": 855,
      "руку": 856,
      "поня": 857,
      "нам": 858,
      "мени": 859,
      "Ле": 860,
      "Гри": 861,
      "тогда": 862,
      "Ты": 863,
      "вари": 864,
      "прав": 865,
      "взя": 866,
      "сни": 867,
      "Со": 868,
      "спи": 869,
      "казалось": 870,
      "фе": 871,
      "види": 872,
      "вает": 873,
      "обще": 874,
      "ведь": 875,
      "воро": 876,
      "женщи": 877,
      "нт": 878,
      "тый": 879,
      "чему": 880,
      "вых": 881,
      "пор": 882,
      "буду": 883,
      "обы": 884,
      "кую": 885,
      "рил": 886,
      "дать": 887,
      "нему": 888,
      "обо": 889,
      "знаю": 890,
      "рал": 891,
      "чка": 892,
      "сол": 893,
      "чки": 894,
      "Ми": 895,
      "изве": 896,
      "пусти": 897,
      "коле": 898,
      "луч": 899,
      "паль": 900,
      "кнул": 901,
      "дум": 902,
      "стави": 903,
      "любо": 904,
      "чески": 905,
      "кар": 906,
      "кло": 907,
      "какой": 908,
      "куда": 909,
      "серд": 910,
      "нова": 911,
      "рей": 912,
      "прави": 913,
      "месте": 914,
      "подня": 915,
      "гори": 916,
      "послед": 917,
      "Нико": 918,
      "ан": 919,
      "шей": 920,
      "ень": 921,
      "видел": 922,
      "слыш": 923,
      "сов": 924,
      "через": 925,
      "уди": 926,
      "голову": 927,
      "зде": 928,
      "соверше": 929,
      "хотя": 930,
      "вол": 931,
      "просто": 932,
      "всё": 933,
      "ственно": 934,
      "пал": 935,
      "жды": 936,
      "между": 937,
      "Самгин": 938,
      "чита": 939,
      "коло": 940,
      "соб": 941,
      "вое": 942,
      "могу": 943,
      "тери": 944,
      "чувст": 945,
      "свое": 946,
      "жала": 947,
      "говорить": 948,
      "лый": 949,
      "знал": 950,
      "Фе": 951,
      "одно": 952,
      "Ан": 953,
      "ья": 954,
      "чтоб": 955,
      "лом": 956,
      "эта": 957,
      "тихо": 958,
      "пока": 959,
      "ар": 960,
      "коро": 961,
      "жизни": 962,
      "спра": 963,
      "вую": 964,
      "весь": 965,
      "други": 966,
      "людей": 967,
      "Анд": 968,
      "ваясь": 969,
      "ноги": 970,
      "тря": 971,
      "спокой": 972,
      "радо": 973,
      "пой": 974,
      "Нет": 975,
      "При": 976,
      "нуть": 977,
      "совсем": 978,
      "другой": 979,
      "жить": 980,
      "),": 981,
      "объя": 982,
      "!\"": 983,
      "жела": 984,
      "верь": 985,
      "дере": 986,
      "ут": 987,
      "особе": 988,
      "жил": 989,
      "воло": 990,
      "этой": 991,
      "долго": 992,
      "своего": 993,
      "чит": 994,
      "шего": 995,
      "дали": 996,
      "лица": 997,
      "Так": 998,
      "чая": 999,
      "люди": 1000,
      "вла": 1001,
      "гром": 1002,
      "всего": 1003,
      "жизнь": 1004,
      "Григори": 1005,
      "носи": 1006,
      "казы": 1007,
      "ост": 1008,
      "кни": 1009,
      "стари": 1010,
      "уда": 1011,
      "говорила": 1012,
      "рус": 1013,
      "мина": 1014,
      "ужа": 1015,
      "нную": 1016,
      "дома": 1017,
      "доб": 1018,
      "уве": 1019,
      "води": 1020,
      "госпо": 1021,
      "ваться": 1022,
      "сами": 1023,
      "ская": 1024,
      "пись": 1025,
      "никогда": 1026,
      "жения": 1027,
      "зло": 1028,
      "деле": 1029,
      "свя": 1030,
      "писа": 1031,
      "дли": 1032,
      "против": 1033,
      "вом": 1034,
      "Пе": 1035,
      "вид": 1036,
      "высо": 1037,
      "малень": 1038,
      "юще": 1039,
      "щего": 1040,
      "чил": 1041,
      "уби": 1042,
      "Никола": 1043,
      "Мар": 1044,
      "хорошо": 1045,
      "шло": 1046,
      "делать": 1047,
      "эту": 1048,
      "понима": 1049,
      "горо": 1050,
      "Лю": 1051,
      "оте": 1052,
      "вого": 1053,
      "ском": 1054,
      "деся": 1055,
      "самы": 1056,
      "ских": 1057,
      "Кли": 1058,
      "откры": 1059,
      "вспо": 1060,
      "зад": 1061,
      "знако": 1062,
      "вопро": 1063,
      "такой": 1064,
      "останови": 1065,
      "мое": 1066,
      "сейчас": 1067,
      "рази": 1068,
      "ье": 1069,
      "бот": 1070,
      "снова": 1071,
      "совершенно": 1072,
      "дели": 1073,
      "юсь": 1074,
      "ству": 1075,
      "нце": 1076,
      "рую": 1077,
      "чера": 1078,
      "холо": 1079,
      "стало": 1080,
      "лице": 1081,
      "ходя": 1082,
      "съ": 1083,
      "смотрел": 1084,
      "вшие": 1085,
      "нулась": 1086,
      "давно": 1087,
      "таки": 1088,
      "кор": 1089,
      "говорит": 1090,
      "минуту": 1091,
      "ехал": 1092,
      "хозя": 1093,
      "наконец": 1094,
      "гре": 1095,
      "здесь": 1096,
      "От": 1097,
      "держа": 1098,
      "але": 1099,
      "жется": 1100,
      "произ": 1101,
      "которой": 1102,
      "человека": 1103,
      "ною": 1104,
      "лоша": 1105,
      "глазами": 1106,
      "свет": 1107,
      "ставля": 1108,
      "Те": 1109,
      "Се": 1110,
      "уй": 1111,
      "князь": 1112,
      "нными": 1113,
      "мать": 1114,
      "рав": 1115,
      "молча": 1116,
      "дву": 1117,
      "шком": 1118,
      "быстро": 1119,
      "ходил": 1120,
      "чку": 1121,
      "стой": 1122,
      "сви": 1123,
      "ются": 1124,
      "уго": 1125,
      "оби": 1126,
      "зву": 1127,
      "броси": 1128,
      "Мы": 1129,
      "тотчас": 1130,
      "лучше": 1131,
      "разгово": 1132,
      "фран": 1133,
      "вшего": 1134,
      "Ар": 1135,
      "начал": 1136,
      "вших": 1137,
      "рва": 1138,
      "всю": 1139,
      "нач": 1140,
      "выра": 1141,
      "ших": 1142,
      "кому": 1143,
      "приня": 1144,
      "нович": 1145,
      "сне": 1146,
      "бно": 1147,
      "дверь": 1148,
      "свой": 1149,
      "ников": 1150,
      "ом": 1151,
      "нами": 1152,
      "бор": 1153,
      "теля": 1154,
      "сказы": 1155,
      "цать": 1156,
      "льзя": 1157,
      "тяже": 1158,
      "большо": 1159,
      "шую": 1160,
      "муж": 1161,
      "тые": 1162,
      "хотел": 1163,
      "дова": 1164,
      "наде": 1165,
      "вин": 1166,
      "Де": 1167,
      "поле": 1168,
      "сси": 1169,
      "ожида": 1170,
      "учи": 1171,
      "пыт": 1172,
      "голос": 1173,
      "ступи": 1174,
      "ции": 1175,
      "Ме": 1176,
      "реди": 1177,
      "Когда": 1178,
      "Сте": 1179,
      "которого": 1180,
      "тила": 1181,
      "счаст": 1182,
      "тере": 1183,
      "мыс": 1184,
      "чувствовал": 1185,
      "?\"": 1186,
      "ские": 1187,
      "мере": 1188,
      "вел": 1189,
      "возь": 1190,
      "Ку": 1191,
      "сю": 1192,
      "блю": 1193,
      "место": 1194,
      "гом": 1195,
      "чик": 1196,
      "особенно": 1197,
      "ночь": 1198,
      "недо": 1199,
      "стар": 1200,
      "своих": 1201,
      "сердце": 1202,
      "которая": 1203,
      "гото": 1204,
      "кнове": 1205,
      "воск": 1206,
      "гал": 1207,
      "валась": 1208,
      "ством": 1209,
      "кова": 1210,
      "рой": 1211,
      "рабо": 1212,
      "нер": 1213,
      "мед": 1214,
      "Ви": 1215,
      "сдел": 1216,
      "вос": 1217,
      "тая": 1218,
      "дем": 1219,
      "нах": 1220,
      "сму": 1221,
      "нес": 1222,
      "похо": 1223,
      "нин": 1224,
      "тился": 1225,
      "маль": 1226,
      "ток": 1227,
      "шку": 1228,
      "рова": 1229,
      "сама": 1230,
      "кою": 1231,
      "нька": 1232,
      "спраши": 1233,
      "внима": 1234,
      "стол": 1235,
      "вались": 1236,
      "оде": 1237,
      "спа": 1238,
      "жел": 1239,
      "Из": 1240,
      "кажется": 1241,
      "хом": 1242,
      "своим": 1243,
      "видно": 1244,
      "бур": 1245,
      "чина": 1246,
      "вместе": 1247,
      "моя": 1248,
      "дале": 1249,
      "Алекса": 1250,
      "офи": 1251,
      "убе": 1252,
      "суда": 1253,
      "пожал": 1254,
      "хоть": 1255,
      "лые": 1256,
      "цер": 1257,
      "ними": 1258,
      "прямо": 1259,
      "ший": 1260,
      "втра": 1261,
      "круг": 1262,
      "повто": 1263,
      "сколь": 1264,
      "которое": 1265,
      "знать": 1266,
      "клю": 1267,
      "помни": 1268,
      "сем": 1269,
      "рен": 1270,
      ".\"": 1271,
      "года": 1272,
      "бога": 1273,
      "тить": 1274,
      "вшей": 1275,
      "слуша": 1276,
      "успе": 1277,
      "Степа": 1278,
      "глаз": 1279,
      "”,": 1280,
      ").": 1281,
      "Ду": 1282,
      "сили": 1283,
      "Григорий": 1284,
      "гости": 1285,
      "тон": 1286,
      "прочем": 1287,
      "бри": 1288,
      "нья": 1289,
      "обыкнове": 1290,
      "разу": 1291,
      "вне": 1292,
      "говоря": 1293,
      "Александ": 1294,
      "стоял": 1295,
      "нельзя": 1296,
      "сня": 1297,
      "лой": 1298,
      "гая": 1299,
      "горе": 1300,
      "рый": 1301,
      "равно": 1302,
      "ющий": 1303,
      "смея": 1304,
      "скри": 1305,
      "ленно": 1306,
      "жало": 1307,
      "жали": 1308,
      "нужно": 1309,
      "Мих": 1310,
      "тю": 1311,
      "пове": 1312,
      "этих": 1313,
      "шим": 1314,
      "чали": 1315,
      "Они": 1316,
      "серди": 1317,
      "бере": 1318,
      "ино": 1319,
      "чуть": 1320,
      "гляды": 1321,
      "прежде": 1322,
      "еха": 1323,
      "еди": 1324,
      "действи": 1325,
      "исто": 1326,
      "такое": 1327,
      "матери": 1328,
      "тки": 1329,
      "ницы": 1330,
      "Ба": 1331,
      "ница": 1332,
      "мало": 1333,
      "которых": 1334,
      "яви": 1335,
      "вами": 1336,
      "Лу": 1337,
      "даль": 1338,
      "почему": 1339,
      "сове": 1340,
      "рить": 1341,
      "дил": 1342,
      "Миха": 1343,
      "оно": 1344,
      "согла": 1345,
      "Раз": 1346,
      "знает": 1347,
      "мысли": 1348,
      "францу": 1349,
      "Мне": 1350,
      "мен": 1351,
      "скоро": 1352,
      "стала": 1353,
      "одной": 1354,
      "глядя": 1355,
      "продолжал": 1356,
      "подумал": 1357,
      "ответил": 1358,
      "ото": 1359,
      "бою": 1360,
      "пис": 1361,
      "менно": 1362,
      "голосом": 1363,
      "слишком": 1364,
      "гли": 1365,
      "Ло": 1366,
      "низ": 1367,
      "которую": 1368,
      "иск": 1369,
      "Хо": 1370,
      "ква": 1371,
      "Ста": 1372,
      "интере": 1373,
      "отец": 1374,
      "вну": 1375,
      "нье": 1376,
      "роди": 1377,
      "ряд": 1378,
      "ит": 1379,
      "рно": 1380,
      "держи": 1381,
      "конечно": 1382,
      "кал": 1383,
      "верх": 1384,
      "моей": 1385,
      "этим": 1386,
      "дох": 1387,
      "ское": 1388,
      ".--": 1389,
      "завтра": 1390,
      "мей": 1391,
      "твер": 1392,
      "возможно": 1393,
      "мет": 1394,
      "щая": 1395,
      "хло": 1396,
      "назад": 1397,
      "нею": 1398,
      "цве": 1399,
      "какие": 1400,
      "именно": 1401,
      "горя": 1402,
      "ход": 1403,
      "душе": 1404,
      "Если": 1405,
      "пошел": 1406,
      "пос": 1407,
      "мор": 1408,
      "шие": 1409,
      "хра": 1410,
      "одного": 1411,
      "наро": 1412,
      "сего": 1413,
      "Клим": 1414,
      "рья": 1415,
      "испу": 1416,
      "нице": 1417,
      "приятно": 1418,
      "свобо": 1419,
      "поро": 1420,
      "печа": 1421,
      "дете": 1422,
      "шля": 1423,
      "лен": 1424,
      "скую": 1425,
      "след": 1426,
      "Иванов": 1427,
      "шал": 1428,
      "дре": 1429,
      "пода": 1430,
      "город": 1431,
      "лишь": 1432,
      "кам": 1433,
      "дни": 1434,
      "тех": 1435,
      "дить": 1436,
      "смотря": 1437,
      "тесь": 1438,
      "бер": 1439,
      "щей": 1440,
      "бума": 1441,
      "широ": 1442,
      "ктор": 1443,
      "Бы": 1444,
      "гами": 1445,
      "рак": 1446,
      "Пав": 1447,
      "добро": 1448,
      "Иван": 1449,
      "хе": 1450,
      "испо": 1451,
      "жать": 1452,
      "рассказы": 1453,
      "стья": 1454,
      "боро": 1455,
      "кли": 1456,
      "Сер": 1457,
      "отвечал": 1458,
      "жна": 1459,
      "поме": 1460,
      "стов": 1461,
      "ваше": 1462,
      "вста": 1463,
      "начала": 1464,
      "Пере": 1465,
      "евна": 1466,
      "сел": 1467,
      "тых": 1468,
      "лая": 1469,
      "чиво": 1470,
      "чной": 1471,
      "иг": 1472,
      "суще": 1473,
      "довольно": 1474,
      "тыся": 1475,
      "графи": 1476,
      "торо": 1477,
      "вышел": 1478,
      "стей": 1479,
      "ден": 1480,
      "Ки": 1481,
      "шеп": 1482,
      "смотри": 1483,
      "двух": 1484,
      "кими": 1485,
      "прекрас": 1486,
      "улыба": 1487,
      "собой": 1488,
      "чный": 1489,
      "Бе": 1490,
      "мый": 1491,
      "зре": 1492,
      "могла": 1493,
      "Моск": 1494,
      "ности": 1495,
      "мом": 1496,
      "рон": 1497,
      "однако": 1498,
      "ступ": 1499,
      "дала": 1500,
      "должен": 1501,
      "сот": 1502,
      "кол": 1503,
      "времени": 1504,
      "скры": 1505,
      "ским": 1506,
      "видеть": 1507,
      "вшая": 1508,
      "нном": 1509,
      "”.": 1510,
      "хочу": 1511,
      "руками": 1512,
      "гна": 1513,
      "тым": 1514,
      "Варва": 1515,
      "должно": 1516,
      "щий": 1517,
      "бре": 1518,
      "телей": 1519,
      "нка": 1520,
      "ью": 1521,
      "слово": 1522,
      "лест": 1523,
      "головой": 1524,
      "Бу": 1525,
      "спу": 1526,
      "помо": 1527,
      "роя": 1528,
      "ходит": 1529,
      "нра": 1530,
      "возвра": 1531,
      "сидел": 1532,
      "преж": 1533,
      "побе": 1534,
      "цев": 1535,
      "брат": 1536,
      "медленно": 1537,
      "ьер": 1538,
      "сед": 1539,
      "отца": 1540,
      "нить": 1541,
      "дѣ": 1542,
      "состоя": 1543,
      "вѣ": 1544,
      "ствие": 1545,
      "стер": 1546,
      "приба": 1547,
      "тами": 1548,
      "ноше": 1549,
      "нѣ": 1550,
      "мной": 1551,
      "стали": 1552,
      "тан": 1553,
      "привы": 1554,
      "случа": 1555,
      "вод": 1556,
      "знаете": 1557,
      "Петро": 1558,
      "вспомни": 1559,
      "следу": 1560,
      "Мари": 1561,
      "фор": 1562,
      "краси": 1563,
      "моего": 1564,
      "дна": 1565,
      "шед": 1566,
      "кончи": 1567,
      "фу": 1568,
      "зеле": 1569,
      "цело": 1570,
      "стороны": 1571,
      "мысль": 1572,
      "Пьер": 1573,
      "ровна": 1574,
      "сюда": 1575,
      "туда": 1576,
      "чать": 1577,
      "неу": 1578,
      "вают": 1579,
      "ями": 1580,
      "ил": 1581,
      "станови": 1582,
      "мах": 1583,
      "комнате": 1584,
      "жны": 1585,
      "игра": 1586,
      "подви": 1587,
      "четы": 1588,
      "лым": 1589,
      "поли": 1590,
      "Андрей": 1591,
      "Га": 1592,
      "солда": 1593,
      "нев": 1594,
      "мысле": 1595,
      "пола": 1596,
      "первый": 1597,
      "самом": 1598,
      "товари": 1599,
      "заве": 1600,
      "мая": 1601,
      "ясно": 1602,
      "думать": 1603,
      "комнату": 1604,
      "ехать": 1605,
      "сегодня": 1606,
      "йти": 1607,
      "мся": 1608,
      "мило": 1609,
      "говорили": 1610,
      "столь": 1611,
      "опа": 1612,
      "креп": 1613,
      "часто": 1614,
      "ницу": 1615,
      "начина": 1616,
      "скоре": 1617,
      "ники": 1618,
      "свер": 1619,
      "спросила": 1620,
      "нок": 1621,
      "яр": 1622,
      "нки": 1623,
      "хле": 1624,
      "какая": 1625,
      "слов": 1626,
      "край": 1627,
      "двери": 1628,
      "весело": 1629,
      "хов": 1630,
      "Че": 1631,
      "части": 1632,
      "тай": 1633,
      "золо": 1634,
      "право": 1635,
      "матри": 1636,
      "Анна": 1637,
      "кнула": 1638,
      "дный": 1639,
      "уви": 1640,
      "вича": 1641,
      "валось": 1642,
      "Федо": 1643,
      "вчера": 1644,
      "сдела": 1645,
      "своем": 1646,
      "рот": 1647,
      "говорю": 1648,
      "возду": 1649,
      "Андре": 1650,
      "запа": 1651,
      "заметил": 1652,
      "пья": 1653,
      "нувшись": 1654,
      "заня": 1655,
      "котором": 1656,
      "Пу": 1657,
      "боя": 1658,
      "позво": 1659,
      "хозяй": 1660,
      "мяг": 1661,
      "рт": 1662,
      "голу": 1663,
      "кажды": 1664,
      "теря": 1665,
      "кричал": 1666,
      "мою": 1667,
      "жем": 1668,
      "работ": 1669,
      "кан": 1670,
      "восто": 1671,
      "мимо": 1672,
      "рок": 1673,
      "сен": 1674,
      "повер": 1675,
      "рукой": 1676,
      "тия": 1677,
      "посе": 1678,
      "словно": 1679,
      "мои": 1680,
      "чей": 1681,
      "ходить": 1682,
      "самого": 1683,
      "верно": 1684,
      "мра": 1685,
      "дам": 1686,
      "говари": 1687,
      "ули": 1688,
      "чрез": 1689,
      "вперед": 1690,
      "цами": 1691,
      "вли": 1692,
      "правда": 1693,
      "души": 1694,
      "предло": 1695,
      "кля": 1696,
      "гина": 1697,
      "Ната": 1698,
      "слышал": 1699,
      "пожалуй": 1700,
      "мар": 1701,
      "строе": 1702,
      "Ла": 1703,
      "вен": 1704,
      "уми": 1705,
      "посте": 1706,
      "Теперь": 1707,
      "зер": 1708,
      "вается": 1709,
      "дель": 1710,
      "уни": 1711,
      "назы": 1712,
      "тала": 1713,
      "сторону": 1714,
      "Ведь": 1715,
      "ина": 1716,
      "около": 1717,
      "какое": 1718,
      "дите": 1719,
      "прово": 1720,
      "которым": 1721,
      "нрави": 1722,
      "воскли": 1723,
      "Ах": 1724,
      "тать": 1725,
      "иногда": 1726,
      "Си": 1727,
      "фо": 1728,
      "места": 1729,
      "жена": 1730,
      "Только": 1731,
      "неве": 1732,
      "никто": 1733,
      "пят": 1734,
      "нил": 1735,
      "обла": 1736,
      "терпе": 1737,
      "язы": 1738,
      "зов": 1739,
      "кали": 1740,
      "нули": 1741,
      "гло": 1742,
      "Его": 1743,
      "смеш": 1744,
      "хотелось": 1745,
      "ньше": 1746,
      "рила": 1747,
      "страш": 1748,
      "рядом": 1749,
      "Иванович": 1750,
      "ступа": 1751,
      "меся": 1752,
      "мужи": 1753,
      "мг": 1754,
      "коман": 1755,
      "хлю": 1756,
      "кала": 1757,
      "этому": 1758,
      "закры": 1759,
      "жая": 1760,
      "пом": 1761,
      "жели": 1762,
      "плать": 1763,
      "къ": 1764,
      "ссо": 1765,
      "ренно": 1766,
      "кори": 1767,
      "думала": 1768,
      "действительно": 1769,
      "письмо": 1770,
      "созна": 1771,
      "настоя": 1772,
      "каким": 1773,
      "вить": 1774,
      "лез": 1775,
      "госуда": 1776,
      "такие": 1777,
      "Фо": 1778,
      "собою": 1779,
      "ально": 1780,
      "кроме": 1781,
      "легко": 1782,
      "близ": 1783,
      "деву": 1784,
      "дцать": 1785,
      "душ": 1786,
      "стара": 1787,
      "лично": 1788,
      "тую": 1789,
      "пар": 1790,
      "правля": 1791,
      "Тут": 1792,
      "серь": 1793,
      "таким": 1794,
      "чение": 1795,
      "пала": 1796,
      "ющих": 1797,
      "Ти": 1798,
      "тельный": 1799,
      "мгнове": 1800,
      "мель": 1801,
      "непре": 1802,
      "мир": 1803,
      "каж": 1804,
      "зво": 1805,
      "нару": 1806,
      "лок": 1807,
      "француз": 1808,
      "Кня": 1809,
      "нео": 1810,
      "Давы": 1811,
      "вез": 1812,
      "сут": 1813,
      "тка": 1814,
      "вила": 1815,
      "хоче": 1816,
      "Нехлю": 1817,
      "ладо": 1818,
      "скор": 1819,
      "люб": 1820,
      "большой": 1821,
      "домой": 1822,
      "лицом": 1823,
      "нерал": 1824,
      "кварти": 1825,
      "мел": 1826,
      "зал": 1827,
      "отноше": 1828,
      "женщина": 1829,
      "нью": 1830,
      "Ор": 1831,
      "читал": 1832,
      "етер": 1833,
      "гря": 1834,
      "вече": 1835,
      "взял": 1836,
      "деть": 1837,
      "дут": 1838,
      "дешь": 1839,
      "кров": 1840,
      "старо": 1841,
      "разговор": 1842,
      "пора": 1843,
      "сделать": 1844,
      "молодой": 1845,
      "тел": 1846,
      "впрочем": 1847,
      "ющие": 1848,
      "одну": 1849,
      "Николай": 1850,
      "обходи": 1851,
      "таль": 1852,
      "ловна": 1853,
      "ог": 1854,
      "вку": 1855,
      "потре": 1856,
      "находи": 1857,
      "няя": 1858,
      "бил": 1859,
      "чке": 1860,
      "проти": 1861,
      "благода": 1862,
      "Зна": 1863,
      "вскри": 1864,
      "чные": 1865,
      "оба": 1866,
      "стару": 1867,
      "лых": 1868,
      "деньги": 1869,
      "удивле": 1870,
      "счастли": 1871,
      "проговорил": 1872,
      "сил": 1873,
      "сквозь": 1874,
      "щую": 1875,
      "улыбаясь": 1876,
      "стом": 1877,
      "испы": 1878,
      "стан": 1879,
      "комнаты": 1880,
      "вшую": 1881,
      "нена": 1882,
      "бира": 1883,
      "ить": 1884,
      "голоса": 1885,
      "казался": 1886,
      "вное": 1887,
      "бары": 1888,
      "наше": 1889,
      "гой": 1890,
      "жением": 1891,
      "мальчи": 1892,
      "разве": 1893,
      "жила": 1894,
      "пру": 1895,
      "чить": 1896,
      "док": 1897,
      "четыре": 1898,
      "ребе": 1899,
      "зачем": 1900,
      "дит": 1901,
      "истори": 1902,
      "Ту": 1903,
      "тора": 1904,
      "глубо": 1905,
      "впол": 1906,
      "среди": 1907,
      "крыль": 1908,
      "любовь": 1909,
      "тах": 1910,
      "ак": 1911,
      "вро": 1912,
      "тели": 1913,
      "прости": 1914,
      "крикнул": 1915,
      "поря": 1916,
      "прият": 1917,
      "немного": 1918,
      "едва": 1919,
      "стоит": 1920,
      "Михай": 1921,
      "ич": 1922,
      "дож": 1923,
      "нюю": 1924,
      "ван": 1925,
      "тельство": 1926,
      "нож": 1927,
      "ласко": 1928,
      "доста": 1929,
      "пры": 1930,
      "ваю": 1931,
      "двор": 1932,
      "дав": 1933,
      "Дми": 1934,
      "вопрос": 1935,
      "зави": 1936,
      "ставить": 1937,
      "вечер": 1938,
      "памя": 1939,
      "призна": 1940,
      "встал": 1941,
      "Одна": 1942,
      "доме": 1943,
      "сомне": 1944,
      "чувству": 1945,
      "жили": 1946,
      "смотреть": 1947,
      "серьез": 1948,
      "громко": 1949,
      "кси": 1950,
      "нился": 1951,
      "шее": 1952,
      "ощу": 1953,
      "шта": 1954,
      "рые": 1955,
      "выми": 1956,
      "тий": 1957,
      "спокойно": 1958,
      "евич": 1959,
      "жении": 1960,
      "жит": 1961,
      "мъ": 1962,
      "вей": 1963,
      "дыха": 1964,
      "скажу": 1965,
      "окру": 1966,
      "пил": 1967,
      "окна": 1968,
      "поль": 1969,
      "видимо": 1970,
      "уче": 1971,
      "друга": 1972,
      "Петер": 1973,
      "рука": 1974,
      "думаю": 1975,
      "споко": 1976,
      "странно": 1977,
      "год": 1978,
      "бормо": 1979,
      "реше": 1980,
      "извест": 1981,
      "глазах": 1982,
      "сила": 1983,
      "уг": 1984,
      "роятно": 1985,
      "других": 1986,
      "знаешь": 1987,
      "вшийся": 1988,
      "вовсе": 1989,
      "ция": 1990,
      "Дмитри": 1991,
      "счита": 1992,
      "Передо": 1993,
      "поспе": 1994,
      "скать": 1995,
      "трево": 1996,
      "цати": 1997,
      "хочет": 1998,
      "казал": 1999,
      "Гра": 2000,
      "испол": 2001,
      "вай": 2002,
      "далеко": 2003,
      "гать": 2004,
      "Петербур": 2005,
      "поя": 2006,
      "мые": 2007,
      "подошел": 2008,
      "схва": 2009,
      "Потом": 2010,
      "сразу": 2011,
      "чайно": 2012,
      "шать": 2013,
      ",-": 2014,
      "гах": 2015,
      "скло": 2016,
      "онъ": 2017,
      "дне": 2018,
      "оди": 2019,
      "говорят": 2020,
      "руках": 2021,
      "сия": 2022,
      "другу": 2023,
      "нич": 2024,
      "знала": 2025,
      "Под": 2026,
      "осве": 2027,
      "семь": 2028,
      "цкий": 2029,
      "печат": 2030,
      "народ": 2031,
      "ите": 2032,
      "офице": 2033,
      "своему": 2034,
      "бь": 2035,
      "удоволь": 2036,
      "раздра": 2037,
      "винова": 2038,
      "пример": 2039,
      "Ивановна": 2040,
      "огром": 2041,
      "дти": 2042,
      "рий": 2043,
      "нимал": 2044,
      "болез": 2045,
      "вшее": 2046,
      "каждый": 2047,
      "шко": 2048,
      "тое": 2049,
      "губы": 2050,
      "улыбкой": 2051,
      "молоды": 2052,
      "нько": 2053,
      "самое": 2054,
      "минут": 2055,
      "дая": 2056,
      "ставле": 2057,
      "щих": 2058,
      "жо": 2059,
      "тен": 2060,
      "смех": 2061,
      "неожида": 2062,
      "ющим": 2063,
      "протя": 2064,
      "темно": 2065,
      "молодо": 2066,
      "тяжело": 2067,
      "Серг": 2068,
      "Ру": 2069,
      "авто": 2070,
      "вольно": 2071,
      "тыми": 2072,
      "скому": 2073,
      "es": 2074,
      "наш": 2075,
      "фигу": 2076,
      "вздох": 2077,
      "глядел": 2078,
      "ходили": 2079,
      "бар": 2080,
      "ъез": 2081,
      "ходила": 2082,
      "зами": 2083,
      "дался": 2084,
      "правле": 2085,
      "Марья": 2086,
      "ждения": 2087,
      "часа": 2088,
      "своими": 2089,
      "смотрела": 2090,
      "Кон": 2091,
      "зап": 2092,
      "необходи": 2093,
      "стру": 2094,
      "задум": 2095,
      "цов": 2096,
      "чо": 2097,
      "остановился": 2098,
      "запи": 2099,
      "доса": 2100,
      "любви": 2101,
      "сматри": 2102,
      "меч": 2103,
      "писал": 2104,
      "отво": 2105,
      "щение": 2106,
      "бед": 2107,
      "свете": 2108,
      "причи": 2109,
      "представля": 2110,
      "самой": 2111,
      "Варвара": 2112,
      "покой": 2113,
      "нулись": 2114,
      "Росси": 2115,
      "ворот": 2116,
      "чным": 2117,
      "вошел": 2118,
      "окон": 2119,
      "подоб": 2120,
      "пить": 2121,
      "on": 2122,
      "вина": 2123,
      "бог": 2124,
      "соба": 2125,
      "щие": 2126,
      "востор": 2127,
      "ен": 2128,
      "Петр": 2129,
      "держал": 2130,
      "удиви": 2131,
      "ужас": 2132,
      "гнул": 2133,
      "щения": 2134,
      "живо": 2135,
      "смерти": 2136,
      "сильно": 2137,
      "коф": 2138,
      "жите": 2139,
      "мѣ": 2140,
      "воспо": 2141,
      "такая": 2142,
      "проис": 2143,
      "шке": 2144,
      "пору": 2145,
      "генерал": 2146,
      "стый": 2147,
      "груди": 2148,
      "случи": 2149,
      "строй": 2150,
      "отчая": 2151,
      "дево": 2152,
      "волю": 2153,
      "смер": 2154,
      "каби": 2155,
      "чек": 2156,
      "такого": 2157,
      "таких": 2158,
      "лей": 2159,
      "гим": 2160,
      "дене": 2161,
      "несмотря": 2162,
      "ление": 2163,
      "гов": 2164,
      "вери": 2165,
      "дев": 2166,
      "князя": 2167,
      "решительно": 2168,
      "ею": 2169,
      "ору": 2170,
      "какъ": 2171,
      "значи": 2172,
      "чных": 2173,
      "случае": 2174,
      "сок": 2175,
      "вижу": 2176,
      "шина": 2177,
      "пля": 2178,
      "тъ": 2179,
      "исче": 2180,
      "шен": 2181,
      "руба": 2182,
      "известно": 2183,
      "осторо": 2184,
      "всей": 2185,
      "надцать": 2186,
      "мили": 2187,
      "рассу": 2188,
      "скорее": 2189,
      "тили": 2190,
      "ющей": 2191,
      "чного": 2192,
      "деви": 2193,
      "Алексе": 2194,
      "началь": 2195,
      "ou": 2196,
      "вания": 2197,
      "Пан": 2198,
      "согласи": 2199,
      "вар": 2200,
      "лки": 2201,
      "помина": 2202,
      "дное": 2203,
      "тельным": 2204,
      "иску": 2205,
      "ствия": 2206,
      "затем": 2207,
      "волосы": 2208,
      "мучи": 2209,
      "Кто": 2210,
      "ником": 2211,
      "значит": 2212,
      "красне": 2213,
      "Лит": 2214,
      "мною": 2215,
      "сооб": 2216,
      "чами": 2217,
      "лка": 2218,
      "пот": 2219,
      "вообще": 2220,
      "Иль": 2221,
      "an": 2222,
      "тилась": 2223,
      "бал": 2224,
      "хри": 2225,
      "вокруг": 2226,
      "гар": 2227,
      "Левин": 2228,
      "ужасно": 2229,
      "рых": 2230,
      "дия": 2231,
      "наши": 2232,
      "солнце": 2233,
      "понимаю": 2234,
      "опусти": 2235,
      "другие": 2236,
      "ответ": 2237,
      "собстве": 2238,
      "заговорил": 2239,
      "ступле": 2240,
      "глупо": 2241,
      "вна": 2242,
      "забы": 2243,
      "ления": 2244,
      "ске": 2245,
      "ждал": 2246,
      "вести": 2247,
      "мых": 2248,
      "ног": 2249,
      "Гово": 2250,
      "сделал": 2251,
      "здо": 2252,
      "льно": 2253,
      "весьма": 2254,
      "Ему": 2255,
      "тера": 2256,
      "лѣ": 2257,
      "люблю": 2258,
      "er": 2259,
      "бами": 2260,
      "судь": 2261,
      "идти": 2262,
      "любопыт": 2263,
      "покло": 2264,
      "вшим": 2265,
      "Дол": 2266,
      "Фран": 2267,
      "рали": 2268,
      "стола": 2269,
      "ува": 2270,
      "седа": 2271,
      "зако": 2272,
      "жки": 2273,
      "многи": 2274,
      "чрезвы": 2275,
      "гну": 2276,
      "нность": 2277,
      "нке": 2278,
      "рад": 2279,
      "взгляд": 2280,
      "Арка": 2281,
      "нку": 2282,
      "Гла": 2283,
      "зри": 2284,
      "образом": 2285,
      "ющего": 2286,
      "могли": 2287,
      "нности": 2288,
      "моли": 2289,
      "хотела": 2290,
      "лую": 2291,
      "щим": 2292,
      "попа": 2293,
      "грудь": 2294,
      "бель": 2295,
      "Пер": 2296,
      "какого": 2297,
      "столько": 2298,
      "пришел": 2299,
      "После": 2300,
      "един": 2301,
      "посмотрел": 2302,
      "треть": 2303,
      "Алексей": 2304,
      "дней": 2305,
      "жный": 2306,
      "жным": 2307,
      "намере": 2308,
      "разуме": 2309,
      "Василь": 2310,
      "en": 2311,
      "Еле": 2312,
      "стые": 2313,
      "любил": 2314,
      "Куту": 2315,
      "жь": 2316,
      "лад": 2317,
      "увидел": 2318,
      "рай": 2319,
      "молчал": 2320,
      "понять": 2321,
      "охот": 2322,
      "выше": 2323,
      "пти": 2324,
      "тр": 2325,
      "утра": 2326,
      "ума": 2327,
      "землю": 2328,
      "Ортру": 2329,
      "лам": 2330,
      "ловко": 2331,
      "розо": 2332,
      "тельное": 2333,
      "слезы": 2334,
      "вольте": 2335,
      "старик": 2336,
      "одним": 2337,
      "будут": 2338,
      "плы": 2339,
      "мно": 2340,
      "може": 2341,
      "Яков": 2342,
      "углу": 2343,
      "став": 2344,
      "объясни": 2345,
      "кти": 2346,
      "зади": 2347,
      "ехали": 2348,
      "горь": 2349,
      "вою": 2350,
      "тельной": 2351,
      "речи": 2352,
      "испуга": 2353,
      "жку": 2354,
      "шала": 2355,
      "чения": 2356,
      "нения": 2357,
      "ческой": 2358,
      "сон": 2359,
      "жив": 2360,
      "кну": 2361,
      "губер": 2362,
      "стояла": 2363,
      "карти": 2364,
      "заклю": 2365,
      "часов": 2366,
      "мого": 2367,
      "служ": 2368,
      "пиро": 2369,
      "ибо": 2370,
      "ночи": 2371,
      "мым": 2372,
      "Степан": 2373,
      "вдо": 2374,
      "какую": 2375,
      "лова": 2376,
      "англи": 2377,
      "рень": 2378,
      "одном": 2379,
      "сына": 2380,
      "Наташа": 2381,
      "щал": 2382,
      "Ге": 2383,
      "пали": 2384,
      "впечат": 2385,
      "мана": 2386,
      "Может": 2387,
      "уча": 2388,
      "самый": 2389,
      "дания": 2390,
      "корот": 2391,
      "рался": 2392,
      "тень": 2393,
      "холод": 2394,
      "ими": 2395,
      "пли": 2396,
      "рах": 2397,
      "просил": 2398,
      "господин": 2399,
      "строго": 2400,
      "понял": 2401,
      "разли": 2402,
      "минуты": 2403,
      "Давыдов": 2404,
      "каме": 2405,
      "трех": 2406,
      "бить": 2407,
      "Чер": 2408,
      "жные": 2409,
      "жим": 2410,
      "головы": 2411,
      "показы": 2412,
      "жной": 2413,
      "тобой": 2414,
      "щее": 2415,
      "дает": 2416,
      "вырази": 2417,
      "пан": 2418,
      "женщины": 2419,
      "дальше": 2420,
      "оши": 2421,
      "чок": 2422,
      "должны": 2423,
      "Ван": 2424,
      "цию": 2425,
      "приез": 2426,
      "обя": 2427,
      "другое": 2428,
      "le": 2429,
      "возбу": 2430,
      "кле": 2431,
      "гали": 2432,
      "опу": 2433,
      "подро": 2434,
      "страшно": 2435,
      "стая": 2436,
      "коли": 2437,
      "жин": 2438,
      "полови": 2439,
      "непременно": 2440,
      "Бер": 2441,
      "моих": 2442,
      "сце": 2443,
      "рами": 2444,
      "лежа": 2445,
      "ставил": 2446,
      "вслед": 2447,
      "здоро": 2448,
      "ждать": 2449,
      "писать": 2450,
      "необыкнове": 2451,
      "рубле": 2452,
      "пера": 2453,
      "сын": 2454,
      "замеча": 2455,
      "поднял": 2456,
      "Князь": 2457,
      "вае": 2458,
      "тку": 2459,
      "явля": 2460,
      "покры": 2461,
      "также": 2462,
      "способ": 2463,
      "наз": 2464,
      "накло": 2465,
      "обре": 2466,
      "мане": 2467,
      "бормотал": 2468,
      "внезап": 2469,
      "рачи": 2470,
      "дости": 2471,
      "бол": 2472,
      "пригла": 2473,
      "щаясь": 2474,
      "чен": 2475,
      "лыми": 2476,
      "земле": 2477,
      "Петрович": 2478,
      "отправи": 2479,
      "казать": 2480,
      "Пнин": 2481,
      "потеря": 2482,
      "небо": 2483,
      "Пре": 2484,
      "нашего": 2485,
      "воды": 2486,
      "граф": 2487,
      "платье": 2488,
      "обяза": 2489,
      "идет": 2490,
      "показалось": 2491,
      "слег": 2492,
      "Катери": 2493,
      "слушал": 2494,
      "казалась": 2495,
      "другого": 2496,
      "почувствовал": 2497,
      "Хри": 2498,
      "имел": 2499,
      "Об": 2500,
      "исти": 2501,
      "дороги": 2502,
      "ющее": 2503,
      "музы": 2504,
      "вернулся": 2505,
      "дур": 2506,
      "положение": 2507,
      "торже": 2508,
      "изви": 2509,
      "жар": 2510,
      "сади": 2511,
      "стри": 2512,
      "мов": 2513,
      "двадцать": 2514,
      "жени": 2515,
      "моему": 2516,
      "сад": 2517,
      "опре": 2518,
      "Наста": 2519,
      "мент": 2520,
      "подле": 2521,
      "огля": 2522,
      "приме": 2523,
      "зная": 2524,
      "ствен": 2525,
      "цем": 2526,
      "доктор": 2527,
      "людя": 2528,
      "Наконец": 2529,
      "Настась": 2530,
      "хотите": 2531,
      "наи": 2532,
      "речь": 2533,
      "време": 2534,
      "постоя": 2535,
      "офицер": 2536,
      "Вер": 2537,
      "неприятно": 2538,
      "жены": 2539,
      "сапо": 2540,
      "харак": 2541,
      "брать": 2542,
      "наве": 2543,
      "печ": 2544,
      "крови": 2545,
      "десять": 2546,
      "вяз": 2547,
      "is": 2548,
      "повторя": 2549,
      "слегка": 2550,
      "тур": 2551,
      "Наталь": 2552,
      "неподви": 2553,
      "мас": 2554,
      "кула": 2555,
      "смеялся": 2556,
      "сред": 2557,
      "бежал": 2558,
      "голова": 2559,
      "солдат": 2560,
      "вышла": 2561,
      "Нехлюдов": 2562,
      "щен": 2563,
      "здоров": 2564,
      "стры": 2565,
      "жий": 2566,
      "дея": 2567,
      "вероятно": 2568,
      "голове": 2569,
      "умер": 2570,
      "узнал": 2571,
      "шек": 2572,
      "Васили": 2573,
      "нному": 2574,
      "прошло": 2575,
      "душно": 2576,
      "шине": 2577,
      "вание": 2578,
      "нях": 2579,
      "нечего": 2580,
      "принима": 2581,
      "господа": 2582,
      "дор": 2583,
      "уз": 2584,
      "рала": 2585,
      "нечно": 2586,
      "стояли": 2587,
      "жей": 2588,
      "мую": 2589,
      "стать": 2590,
      "скочил": 2591,
      "чий": 2592,
      "прибавил": 2593,
      "нта": 2594,
      "нику": 2595,
      "вообра": 2596,
      "чкой": 2597,
      "осторожно": 2598,
      "нче": 2599,
      "четвер": 2600,
      "праз": 2601,
      "никак": 2602,
      "Впрочем": 2603,
      "ея": 2604,
      "нди": 2605,
      "коль": 2606,
      "мужа": 2607,
      "пел": 2608,
      "поез": 2609,
      "тело": 2610,
      "слови": 2611,
      "оты": 2612,
      "защи": 2613,
      "запла": 2614,
      "нос": 2615,
      "трен": 2616,
      "ого": 2617,
      "уро": 2618,
      "нежно": 2619,
      "кт": 2620,
      "рина": 2621,
      "говор": 2622,
      "Через": 2623,
      "нение": 2624,
      "присут": 2625,
      "генер": 2626,
      "решил": 2627,
      "нали": 2628,
      "остро": 2629,
      "лав": 2630,
      "вшиеся": 2631,
      "Передонов": 2632,
      "дливо": 2633,
      "чисто": 2634,
      "арми": 2635,
      "детей": 2636,
      ".)": 2637,
      "хал": 2638,
      "площа": 2639,
      "лежал": 2640,
      "Дро": 2641,
      "удо": 2642,
      "вечера": 2643,
      "важно": 2644,
      "секу": 2645,
      "семей": 2646,
      "рях": 2647,
      "усили": 2648,
      "трудно": 2649,
      "бля": 2650,
      "сидела": 2651,
      "дога": 2652,
      "ужели": 2653,
      "мона": 2654,
      "руке": 2655,
      "Ша": 2656,
      "тин": 2657,
      "воскликнул": 2658,
      "лъ": 2659,
      "нется": 2660,
      "разо": 2661,
      "случай": 2662,
      "Пи": 2663,
      "зет": 2664,
      "пь": 2665,
      "профе": 2666,
      "столе": 2667,
      "поры": 2668,
      "окно": 2669,
      "лошадь": 2670,
      "най": 2671,
      "заку": 2672,
      "слуши": 2673,
      "очевидно": 2674,
      "дерев": 2675,
      "исчез": 2676,
      "вспы": 2677,
      "чувства": 2678,
      "аре": 2679,
      "сере": 2680,
      "дю": 2681,
      "сна": 2682,
      "городе": 2683,
      "Три": 2684,
      "доче": 2685,
      "ктора": 2686,
      "воспомина": 2687,
      "мерт": 2688,
      "Прокоф": 2689,
      "бѣ": 2690,
      "цвет": 2691,
      "пово": 2692,
      "рук": 2693,
      "приехал": 2694,
      "щик": 2695,
      "любит": 2696,
      "кур": 2697,
      "re": 2698,
      "цом": 2699,
      "уте": 2700,
      "господи": 2701,
      "ногу": 2702,
      "тит": 2703,
      "лошадей": 2704,
      "кать": 2705,
      "измени": 2706,
      "Еще": 2707,
      "конце": 2708,
      "забот": 2709,
      "дым": 2710,
      "бря": 2711,
      "улыбнулся": 2712,
      "Сон": 2713,
      "жесто": 2714,
      "гари": 2715,
      "хла": 2716,
      "дороге": 2717,
      "тали": 2718,
      "сторон": 2719,
      "Без": 2720,
      "дами": 2721,
      "Мака": 2722,
      "хочешь": 2723,
      "дки": 2724,
      "обратился": 2725,
      "пливо": 2726,
      "всякий": 2727,
      "несе": 2728,
      "тельства": 2729,
      "успел": 2730,
      "вечером": 2731,
      "лоб": 2732,
      "ниях": 2733,
      "степе": 2734,
      "шься": 2735,
      "Врон": 2736,
      "вор": 2737,
      "блестя": 2738,
      "иначе": 2739,
      "ушел": 2740,
      "дому": 2741,
      "чество": 2742,
      "возра": 2743,
      "Бори": 2744,
      "ств": 2745,
      "отда": 2746,
      "требо": 2747,
      "пое": 2748,
      "прибли": 2749,
      "батю": 2750,
      "дья": 2751,
      "брата": 2752,
      "крепко": 2753,
      "клу": 2754,
      "году": 2755,
      "Алеша": 2756,
      "всеми": 2757,
      "сердца": 2758,
      "оскор": 2759,
      "нина": 2760,
      "рия": 2761,
      "села": 2762,
      "нуться": 2763,
      "словом": 2764,
      "вспомнил": 2765,
      "раза": 2766,
      "никого": 2767,
      "тушка": 2768,
      "взглядом": 2769,
      "вшихся": 2770,
      "беспо": 2771,
      "шин": 2772,
      "вшими": 2773,
      "огляды": 2774,
      "Надо": 2775,
      "приходи": 2776,
      "глав": 2777,
      "города": 2778,
      "денег": 2779,
      "нца": 2780,
      "капи": 2781,
      "Там": 2782,
      "зубы": 2783,
      "Один": 2784,
      "воли": 2785,
      "рин": 2786,
      "тец": 2787,
      "существо": 2788,
      "услы": 2789,
      "шкой": 2790,
      "наблю": 2791,
      "утром": 2792,
      "тою": 2793,
      "рью": 2794,
      "бом": 2795,
      "Госпо": 2796,
      "переди": 2797,
      "вполне": 2798,
      "бок": 2799,
      "Самгина": 2800,
      "непри": 2801,
      "каких": 2802,
      "соеди": 2803,
      "чила": 2804,
      "чная": 2805,
      "ново": 2806,
      "бывало": 2807,
      "стье": 2808,
      "влю": 2809,
      "узна": 2810,
      "забо": 2811,
      "вниз": 2812,
      "зно": 2813,
      "нила": 2814,
      "сея": 2815,
      "должна": 2816,
      "ежели": 2817,
      "куп": 2818,
      "Акси": 2819,
      "лан": 2820,
      "занима": 2821,
      "чие": 2822,
      "старый": 2823,
      "любез": 2824,
      "пах": 2825,
      "гне": 2826,
      "ел": 2827,
      "това": 2828,
      "дура": 2829,
      "ческий": 2830,
      "улице": 2831,
      "выражение": 2832,
      "тились": 2833,
      "спокои": 2834,
      "ногами": 2835,
      "отра": 2836,
      "шить": 2837,
      "Чи": 2838,
      "ям": 2839,
      "лицу": 2840,
      "ехала": 2841,
      "торопливо": 2842,
      "гимна": 2843,
      "эк": 2844,
      "тей": 2845,
      "видела": 2846,
      "поцело": 2847,
      "отли": 2848,
      "счасти": 2849,
      "пожи": 2850,
      "Кре": 2851,
      "например": 2852,
      "Федоро": 2853,
      "силы": 2854,
      "дорогу": 2855,
      "вспомина": 2856,
      "Пра": 2857,
      "ях": 2858,
      "десяти": 2859,
      "крайней": 2860,
      "Тро": 2861,
      "яс": 2862,
      "ческого": 2863,
      "дива": 2864,
      "ждение": 2865,
      "другом": 2866,
      "лку": 2867,
      "избе": 2868,
      "Пье": 2869,
      "Марты": 2870,
      "смерть": 2871,
      "короле": 2872,
      "лошади": 2873,
      "барыш": 2874,
      "дети": 2875,
      "выс": 2876,
      "парти": 2877,
      "ческие": 2878,
      "Кру": 2879,
      "женный": 2880,
      "Петровна": 2881,
      "ческих": 2882,
      "Маргари": 2883,
      "поля": 2884,
      "ниц": 2885,
      "тельного": 2886,
      "ствием": 2887,
      "нашей": 2888,
      "сова": 2889,
      "нял": 2890,
      "отвечала": 2891,
      "вшему": 2892,
      "имя": 2893,
      "пошла": 2894,
      "столу": 2895,
      "ад": 2896,
      "вместо": 2897,
      "нна": 2898,
      "дется": 2899,
      "хода": 2900,
      "шил": 2901,
      "образо": 2902,
      "тысяч": 2903,
      "душу": 2904,
      "зра": 2905,
      "ради": 2906,
      "прос": 2907,
      "дят": 2908,
      "нау": 2909,
      "дама": 2910,
      "будем": 2911,
      "трепе": 2912,
      "могло": 2913,
      "рам": 2914,
      "сосед": 2915,
      "сухо": 2916,
      "гуля": 2917,
      "которому": 2918,
      "деля": 2919,
      "вяза": 2920,
      "плохо": 2921,
      "другим": 2922,
      "поспешно": 2923,
      "19": 2924,
      "нашел": 2925,
      "несчаст": 2926,
      "бывает": 2927,
      "нут": 2928,
      "собе": 2929,
      "бело": 2930,
      "блу": 2931,
      "узнать": 2932,
      "револю": 2933,
      "либо": 2934,
      "шею": 2935,
      "мужчи": 2936,
      "обма": 2937,
      "думы": 2938,
      "другую": 2939,
      "валь": 2940,
      "сердито": 2941,
      "твердо": 2942,
      "ваш": 2943,
      "гай": 2944,
      "чное": 2945,
      "назна": 2946,
      "рев": 2947,
      "необходимо": 2948,
      "Ре": 2949,
      "обстоя": 2950,
      "следо": 2951,
      "in": 2952,
      "красно": 2953,
      "Стра": 2954,
      "превос": 2955,
      "Тогда": 2956,
      "рту": 2957,
      "тела": 2958,
      "взглянул": 2959,
      "земли": 2960,
      "невольно": 2961,
      "ниями": 2962,
      "осталь": 2963,
      "хала": 2964,
      "чаю": 2965,
      "ность": 2966,
      "дочь": 2967,
      "собственно": 2968,
      "сообщи": 2969,
      "собра": 2970,
      "пяти": 2971,
      "случилось": 2972,
      "лал": 2973,
      "смысле": 2974,
      "воспи": 2975,
      "беспокой": 2976,
      "княги": 2977,
      "нец": 2978,
      "Ино": 2979,
      "дила": 2980,
      "Ростов": 2981,
      "нду": 2982,
      "Оче": 2983,
      "стати": 2984,
      "повторил": 2985,
      "желая": 2986,
      "Фили": 2987,
      "вещи": 2988,
      "мец": 2989,
      "тное": 2990,
      "Дени": 2991,
      "навли": 2992,
      "тывал": 2993,
      "заба": 2994,
      "вашего": 2995,
      "цар": 2996,
      "ступил": 2997,
      "зда": 2998,
      "уста": 2999
    },
    "merges": [
      [
        "т",
        "о"
      ],
      [
        "н",
        "а"
      ],
      [
        "н",
        "о"
      ],
      [
        "н",
        "е"
      ],
      [
        "с",
        "т"
      ],
      [
        "п",
        "о"
      ],
      [
        "к",
        "о"
      ],
      [
        "а",
        "л"
      ],
      [
        "г",
        "о"
      ],
      [
        "р",
        "о"
      ],
      [
        "р",
        "а"
      ],
      [
        "н",
        "и"
      ],
      [
        "к",
        "а"
      ],
      [
        "в",
        "о"
      ],
      [
        "р",
        "е"
      ],
      [
        "л",
        "о"
      ],
      [
        "л",
        "и"
      ],
      [
        "р",
        "и"
      ],
      [
        "л",
        "а"
      ],
      [
        "в",
        "е"
      ],
      [
        "т",
        "ь"
      ],
      [
        "т",
        "е"
      ],
      [
        "в",
        "а"
      ],
      [
        "д",
        "е"
      ],
      [
        "з",
        "а"
      ],
      [
        "д",
        "о"
      ],
      [
        "л",
        "е"
      ],
      [
        "с",
        "я"
      ],
      [
        "д",
        "а"
      ],
      [
        "н",
        "ы"
      ],
      [
        "ж",
        "е"
      ],
      [
        "с",
        "е"
      ],
      [
        "м",
        "е"
      ],
      [
        "м",
        "о"
      ],
      [
        "ч",
        "е"
      ],
      [
        "л",
        "ь"
      ],
      [
        "б",
        "ы"
      ],
      [
        "в",
        "и"
      ],
      [
        "с",
        "ь"
      ],
      [
        "м",
        "и"
      ],
      [
        "к",
        "и"
      ],
      [
        "т",
        "а"
      ],
      [
        "-",
        "-"
      ],
      [
        "ч",
        "то"
      ],
      [
        "р",
        "у"
      ],
      [
        "н",
        "у"
      ],
      [
        "о",
        "т"
      ],
      [
        "в",
        "ы"
      ],
      [
        "с",
        "о"
      ],
      [
        "т",
        "и"
      ],
      [
        "д",
        "и"
      ],
      [
        "п",
        "ро"
      ],
      [
        "м",
        "у"
      ],
      [
        "ш",
        "е"
      ],
      [
        "п",
        "е"
      ],
      [
        "б",
        "е"
      ],
      [
        "б",
        "о"
      ],
      [
        "п",
        "ри"
      ],
      [
        "м",
        "а"
      ],
      [
        "х",
        "о"
      ],
      [
        "о",
        "н"
      ],
      [
        "н",
        "я"
      ],
      [
        "к",
        "у"
      ],
      [
        "д",
        "у"
      ],
      [
        "ч",
        "и"
      ],
      [
        "с",
        "то"
      ],
      [
        "ш",
        "и"
      ],
      [
        "ст",
        "а"
      ],
      [
        "ч",
        "а"
      ],
      [
        "л",
        "я"
      ],
      [
        "с",
        "и"
      ],
      [
        "ал",
        "а"
      ],
      [
        "е",
        "го"
      ],
      [
        "и",
        "з"
      ],
      [
        "н",
        "но"
      ],
      [
        "с",
        "а"
      ],
      [
        "в",
        "се"
      ],
      [
        "р",
        "ы"
      ],
      [
        "с",
        "ка"
      ],
      [
        "ка",
        "к"
      ],
      [
        "ра",
        "з"
      ],
      [
        "э",
        "то"
      ],
      [
        "о",
        "б"
      ],
      [
        "л",
        "у"
      ],
      [
        "н",
        "ь"
      ],
      [
        "е",
        "т"
      ],
      [
        "ж",
        "и"
      ],
      [
        "т",
        "ы"
      ],
      [
        "щ",
        "е"
      ],
      [
        "ал",
        "и"
      ],
      [
        "с",
        "ко"
      ],
      [
        "ст",
        "и"
      ],
      [
        "б",
        "у"
      ],
      [
        "л",
        "ю"
      ],
      [
        "р",
        "я"
      ],
      [
        "п",
        "а"
      ],
      [
        "ни",
        "е"
      ],
      [
        "т",
        "у"
      ],
      [
        "п",
        "ре"
      ],
      [
        "ст",
        "ь"
      ],
      [
        "по",
        "д"
      ],
      [
        "г",
        "а"
      ],
      [
        "п",
        "и"
      ],
      [
        "с",
        "во"
      ],
      [
        "з",
        "на"
      ],
      [
        "н",
        "ны"
      ],
      [
        "г",
        "и"
      ],
      [
        "л",
        "ся"
      ],
      [
        "в",
        "ал"
      ],
      [
        "ш",
        "а"
      ],
      [
        "ве",
        "р"
      ],
      [
        "л",
        "ы"
      ],
      [
        "ц",
        "е"
      ],
      [
        "о",
        "на"
      ],
      [
        "го",
        "во"
      ],
      [
        "м",
        "ы"
      ],
      [
        "г",
        "да"
      ],
      [
        "б",
        "а"
      ],
      [
        "ко",
        "то"
      ],
      [
        "те",
        "ль"
      ],
      [
        "ра",
        "с"
      ],
      [
        "ска",
        "з"
      ],
      [
        "щ",
        "и"
      ],
      [
        "в",
        "у"
      ],
      [
        "ко",
        "й"
      ],
      [
        "б",
        "и"
      ],
      [
        "но",
        "й"
      ],
      [
        "ль",
        "ко"
      ],
      [
        "ж",
        "а"
      ],
      [
        "е",
        "е"
      ],
      [
        "ни",
        "я"
      ],
      [
        "с",
        "у"
      ],
      [
        "д",
        "ру"
      ],
      [
        "п",
        "у"
      ],
      [
        "та",
        "к"
      ],
      [
        "пе",
        "ре"
      ],
      [
        "г",
        "ла"
      ],
      [
        "ч",
        "у"
      ],
      [
        "ц",
        "а"
      ],
      [
        "г",
        "у"
      ],
      [
        "с",
        "ки"
      ],
      [
        "с",
        "ле"
      ],
      [
        "бы",
        "ло"
      ],
      [
        "е",
        "й"
      ],
      [
        "д",
        "ы"
      ],
      [
        "ко",
        "м"
      ],
      [
        "ал",
        "о"
      ],
      [
        "гово",
        "ри"
      ],
      [
        "р",
        "ь"
      ],
      [
        "с",
        "к"
      ],
      [
        "ть",
        "ся"
      ],
      [
        "д",
        "ь"
      ],
      [
        "но",
        "го"
      ],
      [
        "ал",
        "ь"
      ],
      [
        "ны",
        "й"
      ],
      [
        "с",
        "по"
      ],
      [
        "ст",
        "во"
      ],
      [
        "П",
        "о"
      ],
      [
        "п",
        "ра"
      ],
      [
        "в",
        "ши"
      ],
      [
        "м",
        "не"
      ],
      [
        "к",
        "е"
      ],
      [
        "ст",
        "е"
      ],
      [
        "ме",
        "ня"
      ],
      [
        "е",
        "му"
      ],
      [
        "и",
        "х"
      ],
      [
        "т",
        "ре"
      ],
      [
        "ш",
        "ь"
      ],
      [
        "го",
        "ло"
      ],
      [
        "в",
        "з"
      ],
      [
        "о",
        "д"
      ],
      [
        "с",
        "ло"
      ],
      [
        "то",
        "м"
      ],
      [
        "ва",
        "я"
      ],
      [
        "е",
        "м"
      ],
      [
        "во",
        "з"
      ],
      [
        "ж",
        "но"
      ],
      [
        "на",
        "я"
      ],
      [
        "т",
        "ся"
      ],
      [
        "Н",
        "а"
      ],
      [
        "б",
        "я"
      ],
      [
        "ла",
        "сь"
      ],
      [
        "О",
        "н"
      ],
      [
        "бы",
        "л"
      ],
      [
        "сказ",
        "ал"
      ],
      [
        "то",
        "лько"
      ],
      [
        "с",
        "лу"
      ],
      [
        "ко",
        "гда"
      ],
      [
        "м",
        "я"
      ],
      [
        "ны",
        "е"
      ],
      [
        "г",
        "ля"
      ],
      [
        "с",
        "ли"
      ],
      [
        "е",
        "ще"
      ],
      [
        "хо",
        "ди"
      ],
      [
        "у",
        "же"
      ],
      [
        "ч",
        "но"
      ],
      [
        "не",
        "й"
      ],
      [
        "до",
        "л"
      ],
      [
        "ст",
        "ра"
      ],
      [
        "х",
        "а"
      ],
      [
        "д",
        "я"
      ],
      [
        "ст",
        "у"
      ],
      [
        "ко",
        "в"
      ],
      [
        "не",
        "го"
      ],
      [
        "с",
        "ы"
      ],
      [
        "ка",
        "з"
      ],
      [
        "Н",
        "е"
      ],
      [
        "кото",
        "ры"
      ],
      [
        "ны",
        "м"
      ],
      [
        "ну",
        "л"
      ],
      [
        "тель",
        "но"
      ],
      [
        "с",
        "ме"
      ],
      [
        "ро",
        "м"
      ],
      [
        "че",
        "м"
      ],
      [
        "ж",
        "ал"
      ],
      [
        "во",
        "й"
      ],
      [
        "че",
        "го"
      ],
      [
        "в",
        "но"
      ],
      [
        "ше",
        "л"
      ],
      [
        "М",
        "а"
      ],
      [
        "Д",
        "а"
      ],
      [
        "е",
        "р"
      ],
      [
        "ны",
        "х"
      ],
      [
        "де",
        "т"
      ],
      [
        "бе",
        "з"
      ],
      [
        "бо",
        "ль"
      ],
      [
        "Н",
        "о"
      ],
      [
        "ст",
        "ве"
      ],
      [
        "ва",
        "ть"
      ],
      [
        "ло",
        "ве"
      ],
      [
        "не",
        "е"
      ],
      [
        "п",
        "я"
      ],
      [
        "ни",
        "м"
      ],
      [
        "д",
        "но"
      ],
      [
        "с",
        "мо"
      ],
      [
        "де",
        "л"
      ],
      [
        "К",
        "а"
      ],
      [
        "пре",
        "д"
      ],
      [
        "т",
        "я"
      ],
      [
        "ш",
        "у"
      ],
      [
        "ро",
        "в"
      ],
      [
        "ну",
        "ю"
      ],
      [
        "сто",
        "я"
      ],
      [
        "ал",
        "ся"
      ],
      [
        "ли",
        "сь"
      ],
      [
        "де",
        "ла"
      ],
      [
        "че",
        "лове"
      ],
      [
        "п",
        "ы"
      ],
      [
        "но",
        "в"
      ],
      [
        "и",
        "ли"
      ],
      [
        "о",
        "че"
      ],
      [
        "в",
        "ст"
      ],
      [
        "д",
        "ля"
      ],
      [
        "г",
        "ра"
      ],
      [
        "в",
        "ре"
      ],
      [
        "щ",
        "а"
      ],
      [
        "в",
        "ле"
      ],
      [
        "те",
        "м"
      ],
      [
        "з",
        "о"
      ],
      [
        "т",
        "ри"
      ],
      [
        "ст",
        "ро"
      ],
      [
        "по",
        "л"
      ],
      [
        "ко",
        "н"
      ],
      [
        "ц",
        "о"
      ],
      [
        "пе",
        "рь"
      ],
      [
        "ф",
        "и"
      ],
      [
        "про",
        "си"
      ],
      [
        "гла",
        "за"
      ],
      [
        "с",
        "но"
      ],
      [
        "в",
        "али"
      ],
      [
        "ч",
        "ал"
      ],
      [
        "м",
        "ал"
      ],
      [
        "г",
        "е"
      ],
      [
        "нны",
        "й"
      ],
      [
        "к",
        "ры"
      ],
      [
        "и",
        "м"
      ],
      [
        "дру",
        "г"
      ],
      [
        "бы",
        "ть"
      ],
      [
        "че",
        "р"
      ],
      [
        "то",
        "го"
      ],
      [
        "ю",
        "т"
      ],
      [
        "в",
        "ала"
      ],
      [
        "ц",
        "и"
      ],
      [
        "к",
        "то"
      ],
      [
        "с",
        "ве"
      ],
      [
        "я",
        "сь"
      ],
      [
        "ло",
        "сь"
      ],
      [
        "ч",
        "ь"
      ],
      [
        "пе",
        "р"
      ],
      [
        "о",
        "ни"
      ],
      [
        "ре",
        "з"
      ],
      [
        "бы",
        "ла"
      ],
      [
        "се",
        "бя"
      ],
      [
        "и",
        "с"
      ],
      [
        "к",
        "ра"
      ],
      [
        "от",
        "ве"
      ],
      [
        "ет",
        "ся"
      ],
      [
        "о",
        "ста"
      ],
      [
        "т",
        "но"
      ],
      [
        "з",
        "ы"
      ],
      [
        "оче",
        "нь"
      ],
      [
        "же",
        "н"
      ],
      [
        "не",
        "м"
      ],
      [
        "де",
        "р"
      ],
      [
        "во",
        "т"
      ],
      [
        "в",
        "с"
      ],
      [
        "п",
        "ле"
      ],
      [
        "з",
        "и"
      ],
      [
        "те",
        "перь"
      ],
      [
        "ни",
        "ма"
      ],
      [
        "ди",
        "н"
      ],
      [
        "э",
        "ти"
      ],
      [
        "ни",
        "и"
      ],
      [
        "ви",
        "ч"
      ],
      [
        "п",
        "ла"
      ],
      [
        "в",
        "я"
      ],
      [
        "ш",
        "о"
      ],
      [
        "же",
        "т"
      ],
      [
        "да",
        "же"
      ],
      [
        "ст",
        "ы"
      ],
      [
        "д",
        "ал"
      ],
      [
        "кото",
        "ро"
      ],
      [
        "по",
        "сле"
      ],
      [
        "са",
        "мо"
      ],
      [
        "е",
        "з"
      ],
      [
        "но",
        "м"
      ],
      [
        "до",
        "м"
      ],
      [
        "ало",
        "сь"
      ],
      [
        "ко",
        "го"
      ],
      [
        "В",
        "а"
      ],
      [
        "не",
        "т"
      ],
      [
        "с",
        "ла"
      ],
      [
        "на",
        "д"
      ],
      [
        "и",
        "ме"
      ],
      [
        "то",
        "му"
      ],
      [
        "де",
        "й"
      ],
      [
        "ж",
        "де"
      ],
      [
        "К",
        "о"
      ],
      [
        "ж",
        "у"
      ],
      [
        "С",
        "а"
      ],
      [
        "в",
        "ля"
      ],
      [
        "б",
        "ро"
      ],
      [
        "б",
        "ра"
      ],
      [
        "ц",
        "у"
      ],
      [
        "говори",
        "л"
      ],
      [
        "к",
        "ру"
      ],
      [
        "ка",
        "ми"
      ],
      [
        "ко",
        "е"
      ],
      [
        "ва",
        "с"
      ],
      [
        "е",
        "те"
      ],
      [
        "б",
        "ле"
      ],
      [
        "ц",
        "ы"
      ],
      [
        "х",
        "от"
      ],
      [
        "что",
        "бы"
      ],
      [
        "ние",
        "м"
      ],
      [
        "т",
        "ра"
      ],
      [
        "по",
        "ло"
      ],
      [
        "ки",
        "й"
      ],
      [
        "к",
        "ри"
      ],
      [
        "и",
        "н"
      ],
      [
        "ки",
        "е"
      ],
      [
        "пя",
        "ть"
      ],
      [
        "О",
        "на"
      ],
      [
        "к",
        "ре"
      ],
      [
        "во",
        "ль"
      ],
      [
        "об",
        "ра"
      ],
      [
        "з",
        "я"
      ],
      [
        "мо",
        "л"
      ],
      [
        "в",
        "ше"
      ],
      [
        "ка",
        "я"
      ],
      [
        "ни",
        "й"
      ],
      [
        "с",
        "лы"
      ],
      [
        "бы",
        "ли"
      ],
      [
        "ш",
        "ка"
      ],
      [
        "ти",
        "л"
      ],
      [
        "Т",
        "а"
      ],
      [
        "до",
        "ро"
      ],
      [
        "вы",
        "й"
      ],
      [
        "н",
        "д"
      ],
      [
        "ва",
        "м"
      ],
      [
        "за",
        "ме"
      ],
      [
        "ски",
        "й"
      ],
      [
        "х",
        "и"
      ],
      [
        "мо",
        "й"
      ],
      [
        "ча",
        "с"
      ],
      [
        "И",
        "ва"
      ],
      [
        "се",
        "р"
      ],
      [
        "Н",
        "и"
      ],
      [
        "ж",
        "из"
      ],
      [
        "ю",
        "щи"
      ],
      [
        "нно",
        "й"
      ],
      [
        "нны",
        "е"
      ],
      [
        "ст",
        "ви"
      ],
      [
        "сто",
        "ро"
      ],
      [
        "г",
        "лу"
      ],
      [
        "г",
        "ру"
      ],
      [
        "в",
        "друг"
      ],
      [
        "ро",
        "д"
      ],
      [
        "к",
        "рас"
      ],
      [
        "сказ",
        "ала"
      ],
      [
        "но",
        "е"
      ],
      [
        "се",
        "бе"
      ],
      [
        "ни",
        "х"
      ],
      [
        "ско",
        "лько"
      ],
      [
        "с",
        "проси"
      ],
      [
        "е",
        "сли"
      ],
      [
        "то",
        "т"
      ],
      [
        "ни",
        "к"
      ],
      [
        "у",
        "лы"
      ],
      [
        "ко",
        "не"
      ],
      [
        "е",
        "в"
      ],
      [
        "де",
        "нь"
      ],
      [
        "али",
        "сь"
      ],
      [
        "бу",
        "дь"
      ],
      [
        "хо",
        "ро"
      ],
      [
        "ско",
        "й"
      ],
      [
        "мо",
        "жет"
      ],
      [
        "ка",
        "за"
      ],
      [
        "смо",
        "тре"
      ],
      [
        "дру",
        "го"
      ],
      [
        "все",
        "м"
      ],
      [
        "ала",
        "сь"
      ],
      [
        "мо",
        "г"
      ],
      [
        "г",
        "де"
      ],
      [
        "д",
        "ва"
      ],
      [
        "пере",
        "д"
      ],
      [
        "ст",
        "ва"
      ],
      [
        "ли",
        "цо"
      ],
      [
        "ло",
        "в"
      ],
      [
        "З",
        "а"
      ],
      [
        "М",
        "о"
      ],
      [
        "ки",
        "м"
      ],
      [
        "ме",
        "р"
      ],
      [
        "к",
        "ро"
      ],
      [
        "с",
        "ку"
      ],
      [
        "ну",
        "лся"
      ],
      [
        "вре",
        "мя"
      ],
      [
        "т",
        "ру"
      ],
      [
        "к",
        "ня"
      ],
      [
        "ду",
        "ма"
      ],
      [
        "б",
        "ла"
      ],
      [
        "по",
        "до"
      ],
      [
        "бо",
        "ле"
      ],
      [
        "Н",
        "у"
      ],
      [
        "п",
        "ря"
      ],
      [
        "П",
        "а"
      ],
      [
        "ска",
        "за"
      ],
      [
        "мо",
        "ло"
      ],
      [
        "это",
        "го"
      ],
      [
        "чу",
        "в"
      ],
      [
        "б",
        "ли"
      ],
      [
        "е",
        "сть"
      ],
      [
        "ни",
        "чего"
      ],
      [
        "В",
        "ы"
      ],
      [
        "та",
        "м"
      ],
      [
        "Э",
        "то"
      ],
      [
        "ми",
        "ну"
      ],
      [
        "челове",
        "к"
      ],
      [
        "ни",
        "будь"
      ],
      [
        "по",
        "лу"
      ],
      [
        "с",
        "пе"
      ],
      [
        "бу",
        "дет"
      ],
      [
        "то",
        "й"
      ],
      [
        "но",
        "ви"
      ],
      [
        "ш",
        "ла"
      ],
      [
        "Р",
        "а"
      ],
      [
        "ско",
        "го"
      ],
      [
        "на",
        "до"
      ],
      [
        "по",
        "ч"
      ],
      [
        "то",
        "л"
      ],
      [
        "чув",
        "ство"
      ],
      [
        "лю",
        "би"
      ],
      [
        "А",
        "ле"
      ],
      [
        "те",
        "р"
      ],
      [
        "сть",
        "ю"
      ],
      [
        "\"",
        "."
      ],
      [
        "хо",
        "те"
      ],
      [
        "ли",
        "во"
      ],
      [
        "нны",
        "м"
      ],
      [
        "х",
        "у"
      ],
      [
        "ра",
        "н"
      ],
      [
        "в",
        "то"
      ],
      [
        "о",
        "р"
      ],
      [
        "ком",
        "на"
      ],
      [
        "вши",
        "сь"
      ],
      [
        "са",
        "м"
      ],
      [
        "у",
        "ж"
      ],
      [
        "нно",
        "е"
      ],
      [
        "о",
        "пять"
      ],
      [
        "нны",
        "х"
      ],
      [
        "на",
        "с"
      ],
      [
        "в",
        "ся"
      ],
      [
        "ну",
        "ла"
      ],
      [
        "ни",
        "ка"
      ],
      [
        "н",
        "ю"
      ],
      [
        "т",
        "во"
      ],
      [
        "ве",
        "ли"
      ],
      [
        "это",
        "т"
      ],
      [
        "е",
        "шь"
      ],
      [
        "п",
        "ло"
      ],
      [
        "ле",
        "т"
      ],
      [
        "ны",
        "ми"
      ],
      [
        "ки",
        "х"
      ],
      [
        "мо",
        "жно"
      ],
      [
        "в",
        "ра"
      ],
      [
        "р",
        "ю"
      ],
      [
        "Т",
        "о"
      ],
      [
        "д",
        "ве"
      ],
      [
        "з",
        "ь"
      ],
      [
        "Са",
        "м"
      ],
      [
        "бо",
        "й"
      ],
      [
        "П",
        "ет"
      ],
      [
        "о",
        "к"
      ],
      [
        "т",
        "ал"
      ],
      [
        "з",
        "у"
      ],
      [
        "р",
        "ти"
      ],
      [
        "т",
        "ро"
      ],
      [
        "те",
        "бя"
      ],
      [
        "ст",
        "ал"
      ],
      [
        "ту",
        "т"
      ],
      [
        "й",
        "те"
      ],
      [
        "по",
        "тому"
      ],
      [
        "м",
        "ни"
      ],
      [
        "ду",
        "мал"
      ],
      [
        "об",
        "раз"
      ],
      [
        "Л",
        "и"
      ],
      [
        "\"",
        ","
      ],
      [
        "сло",
        "ва"
      ],
      [
        "бу",
        "д"
      ],
      [
        "ж",
        "да"
      ],
      [
        "П",
        "ро"
      ],
      [
        "з",
        "е"
      ],
      [
        "вал",
        "ся"
      ],
      [
        "ф",
        "а"
      ],
      [
        "о",
        "бе"
      ],
      [
        "Ч",
        "то"
      ],
      [
        "ги",
        "н"
      ],
      [
        "В",
        "о"
      ],
      [
        "ж",
        "ду"
      ],
      [
        "по",
        "том"
      ],
      [
        "нно",
        "го"
      ],
      [
        "ви",
        "л"
      ],
      [
        "бла",
        "го"
      ],
      [
        "В",
        "е"
      ],
      [
        "д",
        "ня"
      ],
      [
        "то",
        "же"
      ],
      [
        "ст",
        "я"
      ],
      [
        "вши",
        "й"
      ],
      [
        "вз",
        "гля"
      ],
      [
        "которы",
        "й"
      ],
      [
        "ка",
        "х"
      ],
      [
        "д",
        "во"
      ],
      [
        "ма",
        "н"
      ],
      [
        "ст",
        "ре"
      ],
      [
        "ви",
        "де"
      ],
      [
        "буд",
        "то"
      ],
      [
        "че",
        "т"
      ],
      [
        "с",
        "ча"
      ],
      [
        "о",
        "дин"
      ],
      [
        "де",
        "ло"
      ],
      [
        "при",
        "я"
      ],
      [
        "но",
        "ве"
      ],
      [
        "до",
        "в"
      ],
      [
        "Р",
        "о"
      ],
      [
        "е",
        "х"
      ],
      [
        "те",
        "бе"
      ],
      [
        "улы",
        "б"
      ],
      [
        "вал",
        "о"
      ],
      [
        "ч",
        "ала"
      ],
      [
        "к",
        "ла"
      ],
      [
        "го",
        "р"
      ],
      [
        "сво",
        "ей"
      ],
      [
        "в",
        "ь"
      ],
      [
        "щ",
        "у"
      ],
      [
        "которы",
        "е"
      ],
      [
        "все",
        "гда"
      ],
      [
        "все",
        "х"
      ],
      [
        "Б",
        "о"
      ],
      [
        "сказа",
        "ть"
      ],
      [
        "ти",
        "в"
      ],
      [
        "ра",
        "я"
      ],
      [
        "х",
        "ва"
      ],
      [
        "вы",
        "м"
      ],
      [
        "о",
        "со"
      ],
      [
        "про",
        "дол"
      ],
      [
        "д",
        "ви"
      ],
      [
        "Г",
        "о"
      ],
      [
        "Д",
        "о"
      ],
      [
        "Але",
        "к"
      ],
      [
        "те",
        "ле"
      ],
      [
        "ст",
        "но"
      ],
      [
        "о",
        "жи"
      ],
      [
        "се",
        "й"
      ],
      [
        "это",
        "м"
      ],
      [
        "В",
        "от"
      ],
      [
        "з",
        "ем"
      ],
      [
        "то",
        "р"
      ],
      [
        "од",
        "на"
      ],
      [
        "боле",
        "е"
      ],
      [
        "у",
        "м"
      ],
      [
        "н",
        "ная"
      ],
      [
        "то",
        "в"
      ],
      [
        "боль",
        "ше"
      ],
      [
        "ша",
        "я"
      ],
      [
        "ш",
        "но"
      ],
      [
        "ш",
        "ли"
      ],
      [
        "со",
        "м"
      ],
      [
        "ча",
        "й"
      ],
      [
        "ре",
        "ши"
      ],
      [
        "же",
        "ние"
      ],
      [
        "у",
        "ме"
      ],
      [
        "д",
        "ра"
      ],
      [
        "не",
        "сколько"
      ],
      [
        "ве",
        "т"
      ],
      [
        "коне",
        "ц"
      ],
      [
        "сво",
        "ю"
      ],
      [
        "ну",
        "в"
      ],
      [
        "бе",
        "с"
      ],
      [
        "ре",
        "д"
      ],
      [
        "ш",
        "ки"
      ],
      [
        "ру",
        "ки"
      ],
      [
        "д",
        "ро"
      ],
      [
        "поч",
        "ти"
      ],
      [
        ",",
        "--"
      ],
      [
        "Ка",
        "к"
      ],
      [
        "си",
        "ль"
      ],
      [
        "до",
        "воль"
      ],
      [
        "ле",
        "г"
      ],
      [
        "ни",
        "ю"
      ],
      [
        "г",
        "ро"
      ],
      [
        "со",
        "вер"
      ],
      [
        "спроси",
        "л"
      ],
      [
        "по",
        "з"
      ],
      [
        "до",
        "й"
      ],
      [
        "в",
        "ъ"
      ],
      [
        "ве",
        "се"
      ],
      [
        "сво",
        "и"
      ],
      [
        "В",
        "се"
      ],
      [
        "вст",
        "ре"
      ],
      [
        "м",
        "ного"
      ],
      [
        "вы",
        "е"
      ],
      [
        "то",
        "чно"
      ],
      [
        "ъ",
        "я"
      ],
      [
        "ру",
        "ку"
      ],
      [
        "по",
        "ня"
      ],
      [
        "на",
        "м"
      ],
      [
        "ме",
        "ни"
      ],
      [
        "Л",
        "е"
      ],
      [
        "Г",
        "ри"
      ],
      [
        "то",
        "гда"
      ],
      [
        "Т",
        "ы"
      ],
      [
        "ва",
        "ри"
      ],
      [
        "пра",
        "в"
      ],
      [
        "вз",
        "я"
      ],
      [
        "с",
        "ни"
      ],
      [
        "С",
        "о"
      ],
      [
        "с",
        "пи"
      ],
      [
        "каз",
        "алось"
      ],
      [
        "ф",
        "е"
      ],
      [
        "ви",
        "ди"
      ],
      [
        "ва",
        "ет"
      ],
      [
        "об",
        "ще"
      ],
      [
        "ве",
        "дь"
      ],
      [
        "во",
        "ро"
      ],
      [
        "жен",
        "щи"
      ],
      [
        "н",
        "т"
      ],
      [
        "ты",
        "й"
      ],
      [
        "че",
        "му"
      ],
      [
        "вы",
        "х"
      ],
      [
        "по",
        "р"
      ],
      [
        "бу",
        "ду"
      ],
      [
        "о",
        "бы"
      ],
      [
        "ку",
        "ю"
      ],
      [
        "ри",
        "л"
      ],
      [
        "да",
        "ть"
      ],
      [
        "не",
        "му"
      ],
      [
        "о",
        "бо"
      ],
      [
        "зна",
        "ю"
      ],
      [
        "р",
        "ал"
      ],
      [
        "ч",
        "ка"
      ],
      [
        "со",
        "л"
      ],
      [
        "ч",
        "ки"
      ],
      [
        "М",
        "и"
      ],
      [
        "из",
        "ве"
      ],
      [
        "пу",
        "сти"
      ],
      [
        "ко",
        "ле"
      ],
      [
        "лу",
        "ч"
      ],
      [
        "п",
        "аль"
      ],
      [
        "к",
        "нул"
      ],
      [
        "ду",
        "м"
      ],
      [
        "ста",
        "ви"
      ],
      [
        "лю",
        "бо"
      ],
      [
        "че",
        "ски"
      ],
      [
        "ка",
        "р"
      ],
      [
        "к",
        "ло"
      ],
      [
        "ка",
        "кой"
      ],
      [
        "ку",
        "да"
      ],
      [
        "сер",
        "д"
      ],
      [
        "но",
        "ва"
      ],
      [
        "ре",
        "й"
      ],
      [
        "пра",
        "ви"
      ],
      [
        "ме",
        "сте"
      ],
      [
        "под",
        "ня"
      ],
      [
        "го",
        "ри"
      ],
      [
        "после",
        "д"
      ],
      [
        "Ни",
        "ко"
      ],
      [
        "а",
        "н"
      ],
      [
        "ше",
        "й"
      ],
      [
        "е",
        "нь"
      ],
      [
        "ви",
        "дел"
      ],
      [
        "слы",
        "ш"
      ],
      [
        "со",
        "в"
      ],
      [
        "че",
        "рез"
      ],
      [
        "у",
        "ди"
      ],
      [
        "голо",
        "ву"
      ],
      [
        "з",
        "де"
      ],
      [
        "совер",
        "ше"
      ],
      [
        "хот",
        "я"
      ],
      [
        "во",
        "л"
      ],
      [
        "про",
        "сто"
      ],
      [
        "вс",
        "ё"
      ],
      [
        "стве",
        "нно"
      ],
      [
        "п",
        "ал"
      ],
      [
        "ж",
        "ды"
      ],
      [
        "ме",
        "жду"
      ],
      [
        "Сам",
        "гин"
      ],
      [
        "чи",
        "та"
      ],
      [
        "ко",
        "ло"
      ],
      [
        "со",
        "б"
      ],
      [
        "во",
        "е"
      ],
      [
        "мо",
        "гу"
      ],
      [
        "те",
        "ри"
      ],
      [
        "чу",
        "вст"
      ],
      [
        "сво",
        "е"
      ],
      [
        "ж",
        "ала"
      ],
      [
        "говори",
        "ть"
      ],
      [
        "лы",
        "й"
      ],
      [
        "зна",
        "л"
      ],
      [
        "Ф",
        "е"
      ],
      [
        "од",
        "но"
      ],
      [
        "А",
        "н"
      ],
      [
        "ь",
        "я"
      ],
      [
        "что",
        "б"
      ],
      [
        "ло",
        "м"
      ],
      [
        "э",
        "та"
      ],
      [
        "ти",
        "хо"
      ],
      [
        "по",
        "ка"
      ],
      [
        "а",
        "р"
      ],
      [
        "ко",
        "ро"
      ],
      [
        "жиз",
        "ни"
      ],
      [
        "с",
        "пра"
      ],
      [
        "ву",
        "ю"
      ],
      [
        "ве",
        "сь"
      ],
      [
        "дру",
        "ги"
      ],
      [
        "лю",
        "дей"
      ],
      [
        "А",
        "нд"
      ],
      [
        "вая",
        "сь"
      ],
      [
        "но",
        "ги"
      ],
      [
        "т",
        "ря"
      ],
      [
        "спо",
        "кой"
      ],
      [
        "ра",
        "до"
      ],
      [
        "по",
        "й"
      ],
      [
        "Н",
        "ет"
      ],
      [
        "П",
        "ри"
      ],
      [
        "ну",
        "ть"
      ],
      [
        "со",
        "всем"
      ],
      [
        "друго",
        "й"
      ],
      [
        "жи",
        "ть"
      ],
      [
        ")",
        ","
      ],
      [
        "об",
        "ъя"
      ],
      [
        "!",
        "\""
      ],
      [
        "же",
        "ла"
      ],
      [
        "вер",
        "ь"
      ],
      [
        "де",
        "ре"
      ],
      [
        "у",
        "т"
      ],
      [
        "осо",
        "бе"
      ],
      [
        "жи",
        "л"
      ],
      [
        "во",
        "ло"
      ],
      [
        "это",
        "й"
      ],
      [
        "дол",
        "го"
      ],
      [
        "сво",
        "его"
      ],
      [
        "чи",
        "т"
      ],
      [
        "ше",
        "го"
      ],
      [
        "д",
        "али"
      ],
      [
        "ли",
        "ца"
      ],
      [
        "Та",
        "к"
      ],
      [
        "ча",
        "я"
      ],
      [
        "лю",
        "ди"
      ],
      [
        "в",
        "ла"
      ],
      [
        "г",
        "ром"
      ],
      [
        "все",
        "го"
      ],
      [
        "жиз",
        "нь"
      ],
      [
        "Гри",
        "гори"
      ],
      [
        "но",
        "си"
      ],
      [
        "каз",
        "ы"
      ],
      [
        "о",
        "ст"
      ],
      [
        "к",
        "ни"
      ],
      [
        "ста",
        "ри"
      ],
      [
        "у",
        "да"
      ],
      [
        "говори",
        "ла"
      ],
      [
        "ру",
        "с"
      ],
      [
        "ми",
        "на"
      ],
      [
        "у",
        "жа"
      ],
      [
        "н",
        "ную"
      ],
      [
        "до",
        "ма"
      ],
      [
        "до",
        "б"
      ],
      [
        "у",
        "ве"
      ],
      [
        "во",
        "ди"
      ],
      [
        "го",
        "спо"
      ],
      [
        "ва",
        "ться"
      ],
      [
        "са",
        "ми"
      ],
      [
        "ска",
        "я"
      ],
      [
        "пи",
        "сь"
      ],
      [
        "ни",
        "когда"
      ],
      [
        "же",
        "ния"
      ],
      [
        "з",
        "ло"
      ],
      [
        "де",
        "ле"
      ],
      [
        "с",
        "вя"
      ],
      [
        "пи",
        "са"
      ],
      [
        "д",
        "ли"
      ],
      [
        "про",
        "тив"
      ],
      [
        "во",
        "м"
      ],
      [
        "П",
        "е"
      ],
      [
        "ви",
        "д"
      ],
      [
        "вы",
        "со"
      ],
      [
        "мал",
        "ень"
      ],
      [
        "ю",
        "ще"
      ],
      [
        "щ",
        "его"
      ],
      [
        "чи",
        "л"
      ],
      [
        "у",
        "би"
      ],
      [
        "Нико",
        "ла"
      ],
      [
        "Ма",
        "р"
      ],
      [
        "хоро",
        "шо"
      ],
      [
        "ш",
        "ло"
      ],
      [
        "дела",
        "ть"
      ],
      [
        "э",
        "ту"
      ],
      [
        "по",
        "нима"
      ],
      [
        "го",
        "ро"
      ],
      [
        "Л",
        "ю"
      ],
      [
        "о",
        "те"
      ],
      [
        "во",
        "го"
      ],
      [
        "ско",
        "м"
      ],
      [
        "де",
        "ся"
      ],
      [
        "са",
        "мы"
      ],
      [
        "ски",
        "х"
      ],
      [
        "К",
        "ли"
      ],
      [
        "от",
        "кры"
      ],
      [
        "в",
        "спо"
      ],
      [
        "за",
        "д"
      ],
      [
        "зна",
        "ко"
      ],
      [
        "во",
        "про"
      ],
      [
        "та",
        "кой"
      ],
      [
        "оста",
        "нови"
      ],
      [
        "мо",
        "е"
      ],
      [
        "сей",
        "час"
      ],
      [
        "раз",
        "и"
      ],
      [
        "ь",
        "е"
      ],
      [
        "б",
        "от"
      ],
      [
        "сно",
        "ва"
      ],
      [
        "соверше",
        "нно"
      ],
      [
        "де",
        "ли"
      ],
      [
        "ю",
        "сь"
      ],
      [
        "ст",
        "ву"
      ],
      [
        "н",
        "це"
      ],
      [
        "ру",
        "ю"
      ],
      [
        "че",
        "ра"
      ],
      [
        "хо",
        "ло"
      ],
      [
        "ст",
        "ало"
      ],
      [
        "ли",
        "це"
      ],
      [
        "хо",
        "дя"
      ],
      [
        "с",
        "ъ"
      ],
      [
        "смотре",
        "л"
      ],
      [
        "вши",
        "е"
      ],
      [
        "ну",
        "лась"
      ],
      [
        "да",
        "вно"
      ],
      [
        "та",
        "ки"
      ],
      [
        "ко",
        "р"
      ],
      [
        "говори",
        "т"
      ],
      [
        "мину",
        "ту"
      ],
      [
        "ех",
        "ал"
      ],
      [
        "хо",
        "зя"
      ],
      [
        "на",
        "конец"
      ],
      [
        "г",
        "ре"
      ],
      [
        "зде",
        "сь"
      ],
      [
        "О",
        "т"
      ],
      [
        "дер",
        "жа"
      ],
      [
        "ал",
        "е"
      ],
      [
        "же",
        "тся"
      ],
      [
        "про",
        "из"
      ],
      [
        "которо",
        "й"
      ],
      [
        "челове",
        "ка"
      ],
      [
        "но",
        "ю"
      ],
      [
        "ло",
        "ша"
      ],
      [
        "глаза",
        "ми"
      ],
      [
        "све",
        "т"
      ],
      [
        "ста",
        "вля"
      ],
      [
        "Т",
        "е"
      ],
      [
        "С",
        "е"
      ],
      [
        "у",
        "й"
      ],
      [
        "кня",
        "зь"
      ],
      [
        "нны",
        "ми"
      ],
      [
        "ма",
        "ть"
      ],
      [
        "ра",
        "в"
      ],
      [
        "мол",
        "ча"
      ],
      [
        "д",
        "ву"
      ],
      [
        "ш",
        "ком"
      ],
      [
        "бы",
        "стро"
      ],
      [
        "ходи",
        "л"
      ],
      [
        "ч",
        "ку"
      ],
      [
        "сто",
        "й"
      ],
      [
        "с",
        "ви"
      ],
      [
        "ю",
        "тся"
      ],
      [
        "у",
        "го"
      ],
      [
        "об",
        "и"
      ],
      [
        "з",
        "ву"
      ],
      [
        "бро",
        "си"
      ],
      [
        "М",
        "ы"
      ],
      [
        "тот",
        "час"
      ],
      [
        "луч",
        "ше"
      ],
      [
        "раз",
        "гово"
      ],
      [
        "ф",
        "ран"
      ],
      [
        "вше",
        "го"
      ],
      [
        "А",
        "р"
      ],
      [
        "на",
        "чал"
      ],
      [
        "вши",
        "х"
      ],
      [
        "р",
        "ва"
      ],
      [
        "вс",
        "ю"
      ],
      [
        "на",
        "ч"
      ],
      [
        "вы",
        "ра"
      ],
      [
        "ши",
        "х"
      ],
      [
        "ко",
        "му"
      ],
      [
        "при",
        "ня"
      ],
      [
        "но",
        "вич"
      ],
      [
        "с",
        "не"
      ],
      [
        "б",
        "но"
      ],
      [
        "д",
        "верь"
      ],
      [
        "сво",
        "й"
      ],
      [
        "ни",
        "ков"
      ],
      [
        "о",
        "м"
      ],
      [
        "на",
        "ми"
      ],
      [
        "бо",
        "р"
      ],
      [
        "те",
        "ля"
      ],
      [
        "сказ",
        "ы"
      ],
      [
        "ца",
        "ть"
      ],
      [
        "ль",
        "зя"
      ],
      [
        "тя",
        "же"
      ],
      [
        "боль",
        "шо"
      ],
      [
        "шу",
        "ю"
      ],
      [
        "му",
        "ж"
      ],
      [
        "ты",
        "е"
      ],
      [
        "хоте",
        "л"
      ],
      [
        "до",
        "ва"
      ],
      [
        "на",
        "де"
      ],
      [
        "ви",
        "н"
      ],
      [
        "Д",
        "е"
      ],
      [
        "по",
        "ле"
      ],
      [
        "с",
        "си"
      ],
      [
        "ожи",
        "да"
      ],
      [
        "у",
        "чи"
      ],
      [
        "пы",
        "т"
      ],
      [
        "голо",
        "с"
      ],
      [
        "сту",
        "пи"
      ],
      [
        "ци",
        "и"
      ],
      [
        "М",
        "е"
      ],
      [
        "ре",
        "ди"
      ],
      [
        "Ко",
        "гда"
      ],
      [
        "С",
        "те"
      ],
      [
        "которо",
        "го"
      ],
      [
        "ти",
        "ла"
      ],
      [
        "сча",
        "ст"
      ],
      [
        "те",
        "ре"
      ],
      [
        "мы",
        "с"
      ],
      [
        "чувство",
        "вал"
      ],
      [
        "?",
        "\""
      ],
      [
        "ски",
        "е"
      ],
      [
        "ме",
        "ре"
      ],
      [
        "ве",
        "л"
      ],
      [
        "воз",
        "ь"
      ],
      [
        "К",
        "у"
      ],
      [
        "с",
        "ю"
      ],
      [
        "б",
        "лю"
      ],
      [
        "ме",
        "сто"
      ],
      [
        "го",
        "м"
      ],
      [
        "чи",
        "к"
      ],
      [
        "особе",
        "нно"
      ],
      [
        "но",
        "чь"
      ],
      [
        "не",
        "до"
      ],
      [
        "ста",
        "р"
      ],
      [
        "сво",
        "их"
      ],
      [
        "серд",
        "це"
      ],
      [
        "кото",
        "рая"
      ],
      [
        "го",
        "то"
      ],
      [
        "к",
        "нове"
      ],
      [
        "во",
        "ск"
      ],
      [
        "г",
        "ал"
      ],
      [
        "вала",
        "сь"
      ],
      [
        "ство",
        "м"
      ],
      [
        "ко",
        "ва"
      ],
      [
        "ро",
        "й"
      ],
      [
        "ра",
        "бо"
      ],
      [
        "не",
        "р"
      ],
      [
        "ме",
        "д"
      ],
      [
        "В",
        "и"
      ],
      [
        "с",
        "дел"
      ],
      [
        "во",
        "с"
      ],
      [
        "та",
        "я"
      ],
      [
        "де",
        "м"
      ],
      [
        "на",
        "х"
      ],
      [
        "с",
        "му"
      ],
      [
        "не",
        "с"
      ],
      [
        "по",
        "хо"
      ],
      [
        "ни",
        "н"
      ],
      [
        "ти",
        "лся"
      ],
      [
        "м",
        "аль"
      ],
      [
        "то",
        "к"
      ],
      [
        "ш",
        "ку"
      ],
      [
        "ро",
        "ва"
      ],
      [
        "са",
        "ма"
      ],
      [
        "ко",
        "ю"
      ],
      [
        "нь",
        "ка"
      ],
      [
        "спра",
        "ши"
      ],
      [
        "в",
        "нима"
      ],
      [
        "сто",
        "л"
      ],
      [
        "вали",
        "сь"
      ],
      [
        "о",
        "де"
      ],
      [
        "с",
        "па"
      ],
      [
        "же",
        "л"
      ],
      [
        "И",
        "з"
      ],
      [
        "ка",
        "жется"
      ],
      [
        "хо",
        "м"
      ],
      [
        "сво",
        "им"
      ],
      [
        "ви",
        "дно"
      ],
      [
        "бу",
        "р"
      ],
      [
        "чи",
        "на"
      ],
      [
        "в",
        "месте"
      ],
      [
        "мо",
        "я"
      ],
      [
        "дал",
        "е"
      ],
      [
        "Алек",
        "са"
      ],
      [
        "о",
        "фи"
      ],
      [
        "у",
        "бе"
      ],
      [
        "су",
        "да"
      ],
      [
        "по",
        "жал"
      ],
      [
        "хо",
        "ть"
      ],
      [
        "лы",
        "е"
      ],
      [
        "це",
        "р"
      ],
      [
        "ни",
        "ми"
      ],
      [
        "пря",
        "мо"
      ],
      [
        "ши",
        "й"
      ],
      [
        "в",
        "тра"
      ],
      [
        "кру",
        "г"
      ],
      [
        "по",
        "вто"
      ],
      [
        "ско",
        "ль"
      ],
      [
        "которо",
        "е"
      ],
      [
        "зна",
        "ть"
      ],
      [
        "к",
        "лю"
      ],
      [
        "по",
        "мни"
      ],
      [
        "се",
        "м"
      ],
      [
        "ре",
        "н"
      ],
      [
        ".",
        "\""
      ],
      [
        "го",
        "да"
      ],
      [
        "бо",
        "га"
      ],
      [
        "ти",
        "ть"
      ],
      [
        "вше",
        "й"
      ],
      [
        "слу",
        "ша"
      ],
      [
        "у",
        "спе"
      ],
      [
        "Сте",
        "па"
      ],
      [
        "гла",
        "з"
      ],
      [
        "”",
        ","
      ],
      [
        ")",
        "."
      ],
      [
        "Д",
        "у"
      ],
      [
        "си",
        "ли"
      ],
      [
        "Григори",
        "й"
      ],
      [
        "го",
        "сти"
      ],
      [
        "то",
        "н"
      ],
      [
        "про",
        "чем"
      ],
      [
        "б",
        "ри"
      ],
      [
        "нь",
        "я"
      ],
      [
        "обы",
        "кнове"
      ],
      [
        "раз",
        "у"
      ],
      [
        "в",
        "не"
      ],
      [
        "гово",
        "ря"
      ],
      [
        "Алекса",
        "нд"
      ],
      [
        "стоя",
        "л"
      ],
      [
        "не",
        "льзя"
      ],
      [
        "с",
        "ня"
      ],
      [
        "ло",
        "й"
      ],
      [
        "га",
        "я"
      ],
      [
        "го",
        "ре"
      ],
      [
        "ры",
        "й"
      ],
      [
        "ра",
        "вно"
      ],
      [
        "ющи",
        "й"
      ],
      [
        "сме",
        "я"
      ],
      [
        "ск",
        "ри"
      ],
      [
        "ле",
        "нно"
      ],
      [
        "ж",
        "ало"
      ],
      [
        "ж",
        "али"
      ],
      [
        "ну",
        "жно"
      ],
      [
        "М",
        "их"
      ],
      [
        "т",
        "ю"
      ],
      [
        "по",
        "ве"
      ],
      [
        "эти",
        "х"
      ],
      [
        "ши",
        "м"
      ],
      [
        "ч",
        "али"
      ],
      [
        "О",
        "ни"
      ],
      [
        "сер",
        "ди"
      ],
      [
        "бе",
        "ре"
      ],
      [
        "и",
        "но"
      ],
      [
        "чу",
        "ть"
      ],
      [
        "гля",
        "ды"
      ],
      [
        "пре",
        "жде"
      ],
      [
        "е",
        "ха"
      ],
      [
        "е",
        "ди"
      ],
      [
        "дей",
        "стви"
      ],
      [
        "и",
        "сто"
      ],
      [
        "та",
        "кое"
      ],
      [
        "ма",
        "тери"
      ],
      [
        "т",
        "ки"
      ],
      [
        "ни",
        "цы"
      ],
      [
        "Б",
        "а"
      ],
      [
        "ни",
        "ца"
      ],
      [
        "м",
        "ало"
      ],
      [
        "которы",
        "х"
      ],
      [
        "я",
        "ви"
      ],
      [
        "ва",
        "ми"
      ],
      [
        "Л",
        "у"
      ],
      [
        "д",
        "аль"
      ],
      [
        "по",
        "чему"
      ],
      [
        "со",
        "ве"
      ],
      [
        "ри",
        "ть"
      ],
      [
        "ди",
        "л"
      ],
      [
        "Мих",
        "а"
      ],
      [
        "о",
        "но"
      ],
      [
        "со",
        "гла"
      ],
      [
        "Ра",
        "з"
      ],
      [
        "зна",
        "ет"
      ],
      [
        "мы",
        "сли"
      ],
      [
        "фран",
        "цу"
      ],
      [
        "М",
        "не"
      ],
      [
        "ме",
        "н"
      ],
      [
        "ско",
        "ро"
      ],
      [
        "ст",
        "ала"
      ],
      [
        "од",
        "ной"
      ],
      [
        "гля",
        "дя"
      ],
      [
        "продол",
        "жал"
      ],
      [
        "по",
        "думал"
      ],
      [
        "отве",
        "тил"
      ],
      [
        "о",
        "то"
      ],
      [
        "бо",
        "ю"
      ],
      [
        "пи",
        "с"
      ],
      [
        "ме",
        "нно"
      ],
      [
        "голо",
        "сом"
      ],
      [
        "сли",
        "шком"
      ],
      [
        "г",
        "ли"
      ],
      [
        "Л",
        "о"
      ],
      [
        "ни",
        "з"
      ],
      [
        "кото",
        "рую"
      ],
      [
        "и",
        "ск"
      ],
      [
        "Х",
        "о"
      ],
      [
        "к",
        "ва"
      ],
      [
        "С",
        "та"
      ],
      [
        "ин",
        "тере"
      ],
      [
        "оте",
        "ц"
      ],
      [
        "в",
        "ну"
      ],
      [
        "нь",
        "е"
      ],
      [
        "ро",
        "ди"
      ],
      [
        "ря",
        "д"
      ],
      [
        "и",
        "т"
      ],
      [
        "р",
        "но"
      ],
      [
        "дер",
        "жи"
      ],
      [
        "коне",
        "чно"
      ],
      [
        "к",
        "ал"
      ],
      [
        "вер",
        "х"
      ],
      [
        "мо",
        "ей"
      ],
      [
        "эти",
        "м"
      ],
      [
        "до",
        "х"
      ],
      [
        "ско",
        "е"
      ],
      [
        ".",
        "--"
      ],
      [
        "за",
        "втра"
      ],
      [
        "ме",
        "й"
      ],
      [
        "т",
        "вер"
      ],
      [
        "воз",
        "можно"
      ],
      [
        "ме",
        "т"
      ],
      [
        "ща",
        "я"
      ],
      [
        "х",
        "ло"
      ],
      [
        "на",
        "зад"
      ],
      [
        "не",
        "ю"
      ],
      [
        "ц",
        "ве"
      ],
      [
        "ка",
        "кие"
      ],
      [
        "име",
        "нно"
      ],
      [
        "го",
        "ря"
      ],
      [
        "хо",
        "д"
      ],
      [
        "ду",
        "ше"
      ],
      [
        "Е",
        "сли"
      ],
      [
        "по",
        "шел"
      ],
      [
        "по",
        "с"
      ],
      [
        "мо",
        "р"
      ],
      [
        "ши",
        "е"
      ],
      [
        "х",
        "ра"
      ],
      [
        "од",
        "ного"
      ],
      [
        "на",
        "ро"
      ],
      [
        "се",
        "го"
      ],
      [
        "Кли",
        "м"
      ],
      [
        "рь",
        "я"
      ],
      [
        "ис",
        "пу"
      ],
      [
        "ни",
        "це"
      ],
      [
        "прия",
        "тно"
      ],
      [
        "сво",
        "бо"
      ],
      [
        "по",
        "ро"
      ],
      [
        "пе",
        "ча"
      ],
      [
        "де",
        "те"
      ],
      [
        "ш",
        "ля"
      ],
      [
        "ле",
        "н"
      ],
      [
        "ску",
        "ю"
      ],
      [
        "сле",
        "д"
      ],
      [
        "Ива",
        "нов"
      ],
      [
        "ш",
        "ал"
      ],
      [
        "д",
        "ре"
      ],
      [
        "по",
        "да"
      ],
      [
        "го",
        "род"
      ],
      [
        "ли",
        "шь"
      ],
      [
        "ка",
        "м"
      ],
      [
        "д",
        "ни"
      ],
      [
        "те",
        "х"
      ],
      [
        "ди",
        "ть"
      ],
      [
        "смо",
        "тря"
      ],
      [
        "те",
        "сь"
      ],
      [
        "бе",
        "р"
      ],
      [
        "ще",
        "й"
      ],
      [
        "бу",
        "ма"
      ],
      [
        "ши",
        "ро"
      ],
      [
        "кто",
        "р"
      ],
      [
        "Б",
        "ы"
      ],
      [
        "га",
        "ми"
      ],
      [
        "ра",
        "к"
      ],
      [
        "Па",
        "в"
      ],
      [
        "до",
        "бро"
      ],
      [
        "Ива",
        "н"
      ],
      [
        "х",
        "е"
      ],
      [
        "и",
        "спо"
      ],
      [
        "жа",
        "ть"
      ],
      [
        "рас",
        "сказы"
      ],
      [
        "сть",
        "я"
      ],
      [
        "бо",
        "ро"
      ],
      [
        "к",
        "ли"
      ],
      [
        "С",
        "ер"
      ],
      [
        "отве",
        "чал"
      ],
      [
        "ж",
        "на"
      ],
      [
        "по",
        "ме"
      ],
      [
        "сто",
        "в"
      ],
      [
        "ва",
        "ше"
      ],
      [
        "в",
        "ста"
      ],
      [
        "на",
        "чала"
      ],
      [
        "Пе",
        "ре"
      ],
      [
        "ев",
        "на"
      ],
      [
        "се",
        "л"
      ],
      [
        "ты",
        "х"
      ],
      [
        "ла",
        "я"
      ],
      [
        "чи",
        "во"
      ],
      [
        "ч",
        "ной"
      ],
      [
        "и",
        "г"
      ],
      [
        "су",
        "ще"
      ],
      [
        "доволь",
        "но"
      ],
      [
        "ты",
        "ся"
      ],
      [
        "гра",
        "фи"
      ],
      [
        "то",
        "ро"
      ],
      [
        "вы",
        "шел"
      ],
      [
        "ст",
        "ей"
      ],
      [
        "де",
        "н"
      ],
      [
        "К",
        "и"
      ],
      [
        "ше",
        "п"
      ],
      [
        "смо",
        "три"
      ],
      [
        "дву",
        "х"
      ],
      [
        "ки",
        "ми"
      ],
      [
        "пре",
        "крас"
      ],
      [
        "улы",
        "ба"
      ],
      [
        "со",
        "бой"
      ],
      [
        "ч",
        "ный"
      ],
      [
        "Б",
        "е"
      ],
      [
        "мы",
        "й"
      ],
      [
        "з",
        "ре"
      ],
      [
        "мо",
        "гла"
      ],
      [
        "Мо",
        "ск"
      ],
      [
        "но",
        "сти"
      ],
      [
        "мо",
        "м"
      ],
      [
        "ро",
        "н"
      ],
      [
        "одна",
        "ко"
      ],
      [
        "сту",
        "п"
      ],
      [
        "д",
        "ала"
      ],
      [
        "дол",
        "жен"
      ],
      [
        "с",
        "от"
      ],
      [
        "ко",
        "л"
      ],
      [
        "вре",
        "мени"
      ],
      [
        "ск",
        "ры"
      ],
      [
        "ски",
        "м"
      ],
      [
        "виде",
        "ть"
      ],
      [
        "в",
        "шая"
      ],
      [
        "нно",
        "м"
      ],
      [
        "”",
        "."
      ],
      [
        "хо",
        "чу"
      ],
      [
        "ру",
        "ками"
      ],
      [
        "г",
        "на"
      ],
      [
        "ты",
        "м"
      ],
      [
        "Ва",
        "рва"
      ],
      [
        "дол",
        "жно"
      ],
      [
        "щи",
        "й"
      ],
      [
        "б",
        "ре"
      ],
      [
        "теле",
        "й"
      ],
      [
        "н",
        "ка"
      ],
      [
        "ь",
        "ю"
      ],
      [
        "сло",
        "во"
      ],
      [
        "ле",
        "ст"
      ],
      [
        "голо",
        "вой"
      ],
      [
        "Б",
        "у"
      ],
      [
        "с",
        "пу"
      ],
      [
        "по",
        "мо"
      ],
      [
        "ро",
        "я"
      ],
      [
        "ходи",
        "т"
      ],
      [
        "н",
        "ра"
      ],
      [
        "воз",
        "вра"
      ],
      [
        "си",
        "дел"
      ],
      [
        "пре",
        "ж"
      ],
      [
        "по",
        "бе"
      ],
      [
        "це",
        "в"
      ],
      [
        "бра",
        "т"
      ],
      [
        "мед",
        "ленно"
      ],
      [
        "ь",
        "ер"
      ],
      [
        "се",
        "д"
      ],
      [
        "от",
        "ца"
      ],
      [
        "ни",
        "ть"
      ],
      [
        "д",
        "ѣ"
      ],
      [
        "со",
        "стоя"
      ],
      [
        "в",
        "ѣ"
      ],
      [
        "стви",
        "е"
      ],
      [
        "сте",
        "р"
      ],
      [
        "при",
        "ба"
      ],
      [
        "та",
        "ми"
      ],
      [
        "но",
        "ше"
      ],
      [
        "н",
        "ѣ"
      ],
      [
        "м",
        "ной"
      ],
      [
        "ст",
        "али"
      ],
      [
        "та",
        "н"
      ],
      [
        "при",
        "вы"
      ],
      [
        "слу",
        "ча"
      ],
      [
        "во",
        "д"
      ],
      [
        "зна",
        "ете"
      ],
      [
        "Пет",
        "ро"
      ],
      [
        "вспо",
        "мни"
      ],
      [
        "сле",
        "ду"
      ],
      [
        "Ма",
        "ри"
      ],
      [
        "ф",
        "ор"
      ],
      [
        "кра",
        "си"
      ],
      [
        "мо",
        "его"
      ],
      [
        "д",
        "на"
      ],
      [
        "ше",
        "д"
      ],
      [
        "кон",
        "чи"
      ],
      [
        "ф",
        "у"
      ],
      [
        "зе",
        "ле"
      ],
      [
        "це",
        "ло"
      ],
      [
        "сторо",
        "ны"
      ],
      [
        "мыс",
        "ль"
      ],
      [
        "П",
        "ьер"
      ],
      [
        "ров",
        "на"
      ],
      [
        "сю",
        "да"
      ],
      [
        "ту",
        "да"
      ],
      [
        "ча",
        "ть"
      ],
      [
        "не",
        "у"
      ],
      [
        "ва",
        "ют"
      ],
      [
        "я",
        "ми"
      ],
      [
        "и",
        "л"
      ],
      [
        "ста",
        "нови"
      ],
      [
        "ма",
        "х"
      ],
      [
        "комна",
        "те"
      ],
      [
        "ж",
        "ны"
      ],
      [
        "и",
        "гра"
      ],
      [
        "под",
        "ви"
      ],
      [
        "че",
        "ты"
      ],
      [
        "лы",
        "м"
      ],
      [
        "по",
        "ли"
      ],
      [
        "Анд",
        "рей"
      ],
      [
        "Г",
        "а"
      ],
      [
        "сол",
        "да"
      ],
      [
        "не",
        "в"
      ],
      [
        "мы",
        "сле"
      ],
      [
        "по",
        "ла"
      ],
      [
        "пер",
        "вый"
      ],
      [
        "само",
        "м"
      ],
      [
        "то",
        "вари"
      ],
      [
        "за",
        "ве"
      ],
      [
        "ма",
        "я"
      ],
      [
        "я",
        "сно"
      ],
      [
        "дума",
        "ть"
      ],
      [
        "комна",
        "ту"
      ],
      [
        "еха",
        "ть"
      ],
      [
        "сего",
        "дня"
      ],
      [
        "й",
        "ти"
      ],
      [
        "м",
        "ся"
      ],
      [
        "ми",
        "ло"
      ],
      [
        "говори",
        "ли"
      ],
      [
        "сто",
        "ль"
      ],
      [
        "о",
        "па"
      ],
      [
        "кре",
        "п"
      ],
      [
        "ча",
        "сто"
      ],
      [
        "ни",
        "цу"
      ],
      [
        "на",
        "чина"
      ],
      [
        "ско",
        "ре"
      ],
      [
        "ни",
        "ки"
      ],
      [
        "с",
        "вер"
      ],
      [
        "спроси",
        "ла"
      ],
      [
        "но",
        "к"
      ],
      [
        "я",
        "р"
      ],
      [
        "н",
        "ки"
      ],
      [
        "х",
        "ле"
      ],
      [
        "ка",
        "кая"
      ],
      [
        "сло",
        "в"
      ],
      [
        "кра",
        "й"
      ],
      [
        "две",
        "ри"
      ],
      [
        "весе",
        "ло"
      ],
      [
        "хо",
        "в"
      ],
      [
        "Ч",
        "е"
      ],
      [
        "ча",
        "сти"
      ],
      [
        "та",
        "й"
      ],
      [
        "зо",
        "ло"
      ],
      [
        "пра",
        "во"
      ],
      [
        "ма",
        "три"
      ],
      [
        "Ан",
        "на"
      ],
      [
        "к",
        "нула"
      ],
      [
        "д",
        "ный"
      ],
      [
        "у",
        "ви"
      ],
      [
        "ви",
        "ча"
      ],
      [
        "вало",
        "сь"
      ],
      [
        "Фе",
        "до"
      ],
      [
        "в",
        "чера"
      ],
      [
        "с",
        "дела"
      ],
      [
        "сво",
        "ем"
      ],
      [
        "ро",
        "т"
      ],
      [
        "гово",
        "рю"
      ],
      [
        "воз",
        "ду"
      ],
      [
        "Анд",
        "ре"
      ],
      [
        "за",
        "па"
      ],
      [
        "заме",
        "тил"
      ],
      [
        "п",
        "ья"
      ],
      [
        "ну",
        "вшись"
      ],
      [
        "за",
        "ня"
      ],
      [
        "кото",
        "ром"
      ],
      [
        "П",
        "у"
      ],
      [
        "бо",
        "я"
      ],
      [
        "поз",
        "во"
      ],
      [
        "хозя",
        "й"
      ],
      [
        "мя",
        "г"
      ],
      [
        "р",
        "т"
      ],
      [
        "го",
        "лу"
      ],
      [
        "ка",
        "жды"
      ],
      [
        "те",
        "ря"
      ],
      [
        "кри",
        "чал"
      ],
      [
        "мо",
        "ю"
      ],
      [
        "же",
        "м"
      ],
      [
        "ра",
        "бот"
      ],
      [
        "ка",
        "н"
      ],
      [
        "во",
        "сто"
      ],
      [
        "ми",
        "мо"
      ],
      [
        "ро",
        "к"
      ],
      [
        "се",
        "н"
      ],
      [
        "по",
        "вер"
      ],
      [
        "ру",
        "кой"
      ],
      [
        "ти",
        "я"
      ],
      [
        "по",
        "се"
      ],
      [
        "сло",
        "вно"
      ],
      [
        "мо",
        "и"
      ],
      [
        "че",
        "й"
      ],
      [
        "ходи",
        "ть"
      ],
      [
        "само",
        "го"
      ],
      [
        "вер",
        "но"
      ],
      [
        "м",
        "ра"
      ],
      [
        "да",
        "м"
      ],
      [
        "го",
        "вари"
      ],
      [
        "у",
        "ли"
      ],
      [
        "ч",
        "рез"
      ],
      [
        "в",
        "перед"
      ],
      [
        "ца",
        "ми"
      ],
      [
        "в",
        "ли"
      ],
      [
        "прав",
        "да"
      ],
      [
        "ду",
        "ши"
      ],
      [
        "пред",
        "ло"
      ],
      [
        "к",
        "ля"
      ],
      [
        "ги",
        "на"
      ],
      [
        "На",
        "та"
      ],
      [
        "слыш",
        "ал"
      ],
      [
        "пожал",
        "уй"
      ],
      [
        "ма",
        "р"
      ],
      [
        "стро",
        "е"
      ],
      [
        "Л",
        "а"
      ],
      [
        "ве",
        "н"
      ],
      [
        "у",
        "ми"
      ],
      [
        "по",
        "сте"
      ],
      [
        "Те",
        "перь"
      ],
      [
        "з",
        "ер"
      ],
      [
        "ва",
        "ется"
      ],
      [
        "де",
        "ль"
      ],
      [
        "у",
        "ни"
      ],
      [
        "на",
        "зы"
      ],
      [
        "т",
        "ала"
      ],
      [
        "сторо",
        "ну"
      ],
      [
        "Ве",
        "дь"
      ],
      [
        "и",
        "на"
      ],
      [
        "о",
        "коло"
      ],
      [
        "ка",
        "кое"
      ],
      [
        "ди",
        "те"
      ],
      [
        "про",
        "во"
      ],
      [
        "которы",
        "м"
      ],
      [
        "нра",
        "ви"
      ],
      [
        "воск",
        "ли"
      ],
      [
        "А",
        "х"
      ],
      [
        "та",
        "ть"
      ],
      [
        "ино",
        "гда"
      ],
      [
        "С",
        "и"
      ],
      [
        "ф",
        "о"
      ],
      [
        "ме",
        "ста"
      ],
      [
        "же",
        "на"
      ],
      [
        "То",
        "лько"
      ],
      [
        "не",
        "ве"
      ],
      [
        "ни",
        "кто"
      ],
      [
        "пя",
        "т"
      ],
      [
        "ни",
        "л"
      ],
      [
        "об",
        "ла"
      ],
      [
        "тер",
        "пе"
      ],
      [
        "я",
        "зы"
      ],
      [
        "зо",
        "в"
      ],
      [
        "к",
        "али"
      ],
      [
        "ну",
        "ли"
      ],
      [
        "г",
        "ло"
      ],
      [
        "Е",
        "го"
      ],
      [
        "сме",
        "ш"
      ],
      [
        "хоте",
        "лось"
      ],
      [
        "нь",
        "ше"
      ],
      [
        "ри",
        "ла"
      ],
      [
        "стра",
        "ш"
      ],
      [
        "ря",
        "дом"
      ],
      [
        "Ива",
        "нович"
      ],
      [
        "сту",
        "па"
      ],
      [
        "ме",
        "ся"
      ],
      [
        "му",
        "жи"
      ],
      [
        "м",
        "г"
      ],
      [
        "ко",
        "ман"
      ],
      [
        "х",
        "лю"
      ],
      [
        "к",
        "ала"
      ],
      [
        "это",
        "му"
      ],
      [
        "за",
        "кры"
      ],
      [
        "жа",
        "я"
      ],
      [
        "по",
        "м"
      ],
      [
        "же",
        "ли"
      ],
      [
        "пла",
        "ть"
      ],
      [
        "к",
        "ъ"
      ],
      [
        "с",
        "со"
      ],
      [
        "ре",
        "нно"
      ],
      [
        "ко",
        "ри"
      ],
      [
        "дум",
        "ала"
      ],
      [
        "действи",
        "тельно"
      ],
      [
        "пись",
        "мо"
      ],
      [
        "со",
        "зна"
      ],
      [
        "на",
        "стоя"
      ],
      [
        "ка",
        "ким"
      ],
      [
        "ви",
        "ть"
      ],
      [
        "ле",
        "з"
      ],
      [
        "го",
        "суда"
      ],
      [
        "та",
        "кие"
      ],
      [
        "Ф",
        "о"
      ],
      [
        "со",
        "бою"
      ],
      [
        "аль",
        "но"
      ],
      [
        "кро",
        "ме"
      ],
      [
        "лег",
        "ко"
      ],
      [
        "бли",
        "з"
      ],
      [
        "де",
        "ву"
      ],
      [
        "д",
        "цать"
      ],
      [
        "ду",
        "ш"
      ],
      [
        "ста",
        "ра"
      ],
      [
        "ли",
        "чно"
      ],
      [
        "ту",
        "ю"
      ],
      [
        "па",
        "р"
      ],
      [
        "пра",
        "вля"
      ],
      [
        "Т",
        "ут"
      ],
      [
        "се",
        "рь"
      ],
      [
        "та",
        "ким"
      ],
      [
        "че",
        "ние"
      ],
      [
        "п",
        "ала"
      ],
      [
        "ющи",
        "х"
      ],
      [
        "Т",
        "и"
      ],
      [
        "тель",
        "ный"
      ],
      [
        "мг",
        "нове"
      ],
      [
        "ме",
        "ль"
      ],
      [
        "не",
        "пре"
      ],
      [
        "ми",
        "р"
      ],
      [
        "ка",
        "ж"
      ],
      [
        "з",
        "во"
      ],
      [
        "на",
        "ру"
      ],
      [
        "ло",
        "к"
      ],
      [
        "францу",
        "з"
      ],
      [
        "К",
        "ня"
      ],
      [
        "не",
        "о"
      ],
      [
        "Да",
        "вы"
      ],
      [
        "ве",
        "з"
      ],
      [
        "су",
        "т"
      ],
      [
        "т",
        "ка"
      ],
      [
        "ви",
        "ла"
      ],
      [
        "хо",
        "че"
      ],
      [
        "Не",
        "хлю"
      ],
      [
        "ла",
        "до"
      ],
      [
        "ско",
        "р"
      ],
      [
        "лю",
        "б"
      ],
      [
        "большо",
        "й"
      ],
      [
        "до",
        "мой"
      ],
      [
        "лицо",
        "м"
      ],
      [
        "не",
        "рал"
      ],
      [
        "ква",
        "рти"
      ],
      [
        "ме",
        "л"
      ],
      [
        "з",
        "ал"
      ],
      [
        "от",
        "ноше"
      ],
      [
        "женщи",
        "на"
      ],
      [
        "нь",
        "ю"
      ],
      [
        "О",
        "р"
      ],
      [
        "чи",
        "тал"
      ],
      [
        "ете",
        "р"
      ],
      [
        "г",
        "ря"
      ],
      [
        "ве",
        "че"
      ],
      [
        "взя",
        "л"
      ],
      [
        "де",
        "ть"
      ],
      [
        "ду",
        "т"
      ],
      [
        "де",
        "шь"
      ],
      [
        "к",
        "ров"
      ],
      [
        "ста",
        "ро"
      ],
      [
        "разгово",
        "р"
      ],
      [
        "по",
        "ра"
      ],
      [
        "с",
        "делать"
      ],
      [
        "моло",
        "дой"
      ],
      [
        "те",
        "л"
      ],
      [
        "в",
        "прочем"
      ],
      [
        "ющи",
        "е"
      ],
      [
        "од",
        "ну"
      ],
      [
        "Никола",
        "й"
      ],
      [
        "об",
        "ходи"
      ],
      [
        "т",
        "аль"
      ],
      [
        "лов",
        "на"
      ],
      [
        "о",
        "г"
      ],
      [
        "в",
        "ку"
      ],
      [
        "по",
        "тре"
      ],
      [
        "на",
        "ходи"
      ],
      [
        "ня",
        "я"
      ],
      [
        "би",
        "л"
      ],
      [
        "ч",
        "ке"
      ],
      [
        "про",
        "ти"
      ],
      [
        "благо",
        "да"
      ],
      [
        "З",
        "на"
      ],
      [
        "в",
        "скри"
      ],
      [
        "ч",
        "ные"
      ],
      [
        "об",
        "а"
      ],
      [
        "ста",
        "ру"
      ],
      [
        "лы",
        "х"
      ],
      [
        "день",
        "ги"
      ],
      [
        "уди",
        "вле"
      ],
      [
        "счаст",
        "ли"
      ],
      [
        "про",
        "говорил"
      ],
      [
        "си",
        "л"
      ],
      [
        "ск",
        "возь"
      ],
      [
        "щу",
        "ю"
      ],
      [
        "улыба",
        "ясь"
      ],
      [
        "сто",
        "м"
      ],
      [
        "ис",
        "пы"
      ],
      [
        "ста",
        "н"
      ],
      [
        "комна",
        "ты"
      ],
      [
        "в",
        "шую"
      ],
      [
        "не",
        "на"
      ],
      [
        "би",
        "ра"
      ],
      [
        "и",
        "ть"
      ],
      [
        "голо",
        "са"
      ],
      [
        "каз",
        "ался"
      ],
      [
        "вно",
        "е"
      ],
      [
        "ба",
        "ры"
      ],
      [
        "на",
        "ше"
      ],
      [
        "го",
        "й"
      ],
      [
        "же",
        "нием"
      ],
      [
        "маль",
        "чи"
      ],
      [
        "раз",
        "ве"
      ],
      [
        "жи",
        "ла"
      ],
      [
        "п",
        "ру"
      ],
      [
        "чи",
        "ть"
      ],
      [
        "до",
        "к"
      ],
      [
        "четы",
        "ре"
      ],
      [
        "ре",
        "бе"
      ],
      [
        "за",
        "чем"
      ],
      [
        "ди",
        "т"
      ],
      [
        "исто",
        "ри"
      ],
      [
        "Т",
        "у"
      ],
      [
        "то",
        "ра"
      ],
      [
        "глу",
        "бо"
      ],
      [
        "в",
        "пол"
      ],
      [
        "с",
        "реди"
      ],
      [
        "кры",
        "ль"
      ],
      [
        "любо",
        "вь"
      ],
      [
        "та",
        "х"
      ],
      [
        "а",
        "к"
      ],
      [
        "в",
        "ро"
      ],
      [
        "те",
        "ли"
      ],
      [
        "про",
        "сти"
      ],
      [
        "кри",
        "кнул"
      ],
      [
        "по",
        "ря"
      ],
      [
        "прия",
        "т"
      ],
      [
        "нем",
        "ного"
      ],
      [
        "е",
        "два"
      ],
      [
        "сто",
        "ит"
      ],
      [
        "Миха",
        "й"
      ],
      [
        "и",
        "ч"
      ],
      [
        "до",
        "ж"
      ],
      [
        "ню",
        "ю"
      ],
      [
        "ва",
        "н"
      ],
      [
        "тель",
        "ство"
      ],
      [
        "но",
        "ж"
      ],
      [
        "ла",
        "ско"
      ],
      [
        "до",
        "ста"
      ],
      [
        "п",
        "ры"
      ],
      [
        "ва",
        "ю"
      ],
      [
        "дво",
        "р"
      ],
      [
        "да",
        "в"
      ],
      [
        "Д",
        "ми"
      ],
      [
        "вопро",
        "с"
      ],
      [
        "за",
        "ви"
      ],
      [
        "стави",
        "ть"
      ],
      [
        "ве",
        "чер"
      ],
      [
        "па",
        "мя"
      ],
      [
        "при",
        "зна"
      ],
      [
        "вст",
        "ал"
      ],
      [
        "О",
        "дна"
      ],
      [
        "до",
        "ме"
      ],
      [
        "со",
        "мне"
      ],
      [
        "чувст",
        "ву"
      ],
      [
        "жи",
        "ли"
      ],
      [
        "смотре",
        "ть"
      ],
      [
        "серь",
        "ез"
      ],
      [
        "гром",
        "ко"
      ],
      [
        "к",
        "си"
      ],
      [
        "ни",
        "лся"
      ],
      [
        "ше",
        "е"
      ],
      [
        "о",
        "щу"
      ],
      [
        "ш",
        "та"
      ],
      [
        "ры",
        "е"
      ],
      [
        "вы",
        "ми"
      ],
      [
        "ти",
        "й"
      ],
      [
        "спокой",
        "но"
      ],
      [
        "е",
        "вич"
      ],
      [
        "же",
        "нии"
      ],
      [
        "жи",
        "т"
      ],
      [
        "м",
        "ъ"
      ],
      [
        "ве",
        "й"
      ],
      [
        "ды",
        "ха"
      ],
      [
        "ска",
        "жу"
      ],
      [
        "о",
        "кру"
      ],
      [
        "пи",
        "л"
      ],
      [
        "ок",
        "на"
      ],
      [
        "по",
        "ль"
      ],
      [
        "види",
        "мо"
      ],
      [
        "у",
        "че"
      ],
      [
        "дру",
        "га"
      ],
      [
        "П",
        "етер"
      ],
      [
        "ру",
        "ка"
      ],
      [
        "дума",
        "ю"
      ],
      [
        "спо",
        "ко"
      ],
      [
        "стра",
        "нно"
      ],
      [
        "го",
        "д"
      ],
      [
        "бор",
        "мо"
      ],
      [
        "ре",
        "ше"
      ],
      [
        "изве",
        "ст"
      ],
      [
        "глаза",
        "х"
      ],
      [
        "си",
        "ла"
      ],
      [
        "у",
        "г"
      ],
      [
        "роя",
        "тно"
      ],
      [
        "други",
        "х"
      ],
      [
        "зна",
        "ешь"
      ],
      [
        "вший",
        "ся"
      ],
      [
        "во",
        "все"
      ],
      [
        "ци",
        "я"
      ],
      [
        "Дми",
        "три"
      ],
      [
        "с",
        "чита"
      ],
      [
        "Пере",
        "до"
      ],
      [
        "по",
        "спе"
      ],
      [
        "ска",
        "ть"
      ],
      [
        "тре",
        "во"
      ],
      [
        "ца",
        "ти"
      ],
      [
        "хо",
        "чет"
      ],
      [
        "каз",
        "ал"
      ],
      [
        "Г",
        "ра"
      ],
      [
        "испо",
        "л"
      ],
      [
        "ва",
        "й"
      ],
      [
        "дале",
        "ко"
      ],
      [
        "га",
        "ть"
      ],
      [
        "Петер",
        "бур"
      ],
      [
        "по",
        "я"
      ],
      [
        "мы",
        "е"
      ],
      [
        "подо",
        "шел"
      ],
      [
        "с",
        "хва"
      ],
      [
        "По",
        "том"
      ],
      [
        "с",
        "разу"
      ],
      [
        "чай",
        "но"
      ],
      [
        "ша",
        "ть"
      ],
      [
        ",",
        "-"
      ],
      [
        "га",
        "х"
      ],
      [
        "ск",
        "ло"
      ],
      [
        "он",
        "ъ"
      ],
      [
        "д",
        "не"
      ],
      [
        "о",
        "ди"
      ],
      [
        "говоря",
        "т"
      ],
      [
        "ру",
        "ках"
      ],
      [
        "си",
        "я"
      ],
      [
        "дру",
        "гу"
      ],
      [
        "ни",
        "ч"
      ],
      [
        "зна",
        "ла"
      ],
      [
        "По",
        "д"
      ],
      [
        "о",
        "све"
      ],
      [
        "сем",
        "ь"
      ],
      [
        "ц",
        "кий"
      ],
      [
        "печа",
        "т"
      ],
      [
        "на",
        "род"
      ],
      [
        "и",
        "те"
      ],
      [
        "офи",
        "це"
      ],
      [
        "сво",
        "ему"
      ],
      [
        "б",
        "ь"
      ],
      [
        "у",
        "доволь"
      ],
      [
        "раз",
        "дра"
      ],
      [
        "ви",
        "нова"
      ],
      [
        "при",
        "мер"
      ],
      [
        "Иванов",
        "на"
      ],
      [
        "о",
        "гром"
      ],
      [
        "д",
        "ти"
      ],
      [
        "ри",
        "й"
      ],
      [
        "ним",
        "ал"
      ],
      [
        "боле",
        "з"
      ],
      [
        "вше",
        "е"
      ],
      [
        "кажды",
        "й"
      ],
      [
        "ш",
        "ко"
      ],
      [
        "то",
        "е"
      ],
      [
        "гу",
        "бы"
      ],
      [
        "улыб",
        "кой"
      ],
      [
        "моло",
        "ды"
      ],
      [
        "нь",
        "ко"
      ],
      [
        "само",
        "е"
      ],
      [
        "мину",
        "т"
      ],
      [
        "да",
        "я"
      ],
      [
        "ста",
        "вле"
      ],
      [
        "щи",
        "х"
      ],
      [
        "ж",
        "о"
      ],
      [
        "те",
        "н"
      ],
      [
        "сме",
        "х"
      ],
      [
        "не",
        "ожида"
      ],
      [
        "ющи",
        "м"
      ],
      [
        "про",
        "тя"
      ],
      [
        "тем",
        "но"
      ],
      [
        "моло",
        "до"
      ],
      [
        "тяже",
        "ло"
      ],
      [
        "Сер",
        "г"
      ],
      [
        "Р",
        "у"
      ],
      [
        "а",
        "вто"
      ],
      [
        "воль",
        "но"
      ],
      [
        "ты",
        "ми"
      ],
      [
        "ско",
        "му"
      ],
      [
        "e",
        "s"
      ],
      [
        "на",
        "ш"
      ],
      [
        "фи",
        "гу"
      ],
      [
        "вз",
        "дох"
      ],
      [
        "гля",
        "дел"
      ],
      [
        "ходи",
        "ли"
      ],
      [
        "ба",
        "р"
      ],
      [
        "ъ",
        "ез"
      ],
      [
        "ходи",
        "ла"
      ],
      [
        "за",
        "ми"
      ],
      [
        "д",
        "ался"
      ],
      [
        "пра",
        "вле"
      ],
      [
        "Ма",
        "рья"
      ],
      [
        "жде",
        "ния"
      ],
      [
        "ча",
        "са"
      ],
      [
        "свои",
        "ми"
      ],
      [
        "смотре",
        "ла"
      ],
      [
        "К",
        "он"
      ],
      [
        "за",
        "п"
      ],
      [
        "не",
        "обходи"
      ],
      [
        "ст",
        "ру"
      ],
      [
        "за",
        "дум"
      ],
      [
        "цо",
        "в"
      ],
      [
        "ч",
        "о"
      ],
      [
        "останови",
        "лся"
      ],
      [
        "за",
        "пи"
      ],
      [
        "до",
        "са"
      ],
      [
        "люб",
        "ви"
      ],
      [
        "с",
        "матри"
      ],
      [
        "ме",
        "ч"
      ],
      [
        "пис",
        "ал"
      ],
      [
        "от",
        "во"
      ],
      [
        "ще",
        "ние"
      ],
      [
        "бе",
        "д"
      ],
      [
        "све",
        "те"
      ],
      [
        "при",
        "чи"
      ],
      [
        "пред",
        "ставля"
      ],
      [
        "само",
        "й"
      ],
      [
        "Варва",
        "ра"
      ],
      [
        "по",
        "кой"
      ],
      [
        "ну",
        "лись"
      ],
      [
        "Ро",
        "сси"
      ],
      [
        "воро",
        "т"
      ],
      [
        "ч",
        "ным"
      ],
      [
        "во",
        "шел"
      ],
      [
        "о",
        "кон"
      ],
      [
        "подо",
        "б"
      ],
      [
        "пи",
        "ть"
      ],
      [
        "o",
        "n"
      ],
      [
        "ви",
        "на"
      ],
      [
        "бо",
        "г"
      ],
      [
        "со",
        "ба"
      ],
      [
        "щи",
        "е"
      ],
      [
        "восто",
        "р"
      ],
      [
        "е",
        "н"
      ],
      [
        "Пет",
        "р"
      ],
      [
        "дер",
        "жал"
      ],
      [
        "уди",
        "ви"
      ],
      [
        "ужа",
        "с"
      ],
      [
        "г",
        "нул"
      ],
      [
        "ще",
        "ния"
      ],
      [
        "жи",
        "во"
      ],
      [
        "сме",
        "рти"
      ],
      [
        "силь",
        "но"
      ],
      [
        "ко",
        "ф"
      ],
      [
        "жи",
        "те"
      ],
      [
        "м",
        "ѣ"
      ],
      [
        "во",
        "спо"
      ],
      [
        "та",
        "кая"
      ],
      [
        "про",
        "ис"
      ],
      [
        "ш",
        "ке"
      ],
      [
        "по",
        "ру"
      ],
      [
        "ге",
        "нерал"
      ],
      [
        "сты",
        "й"
      ],
      [
        "гру",
        "ди"
      ],
      [
        "слу",
        "чи"
      ],
      [
        "стро",
        "й"
      ],
      [
        "от",
        "чая"
      ],
      [
        "де",
        "во"
      ],
      [
        "во",
        "лю"
      ],
      [
        "сме",
        "р"
      ],
      [
        "ка",
        "би"
      ],
      [
        "че",
        "к"
      ],
      [
        "та",
        "кого"
      ],
      [
        "та",
        "ких"
      ],
      [
        "ле",
        "й"
      ],
      [
        "ги",
        "м"
      ],
      [
        "де",
        "не"
      ],
      [
        "не",
        "смотря"
      ],
      [
        "ле",
        "ние"
      ],
      [
        "го",
        "в"
      ],
      [
        "ве",
        "ри"
      ],
      [
        "де",
        "в"
      ],
      [
        "кня",
        "зя"
      ],
      [
        "реши",
        "тельно"
      ],
      [
        "е",
        "ю"
      ],
      [
        "о",
        "ру"
      ],
      [
        "как",
        "ъ"
      ],
      [
        "зна",
        "чи"
      ],
      [
        "ч",
        "ных"
      ],
      [
        "случа",
        "е"
      ],
      [
        "со",
        "к"
      ],
      [
        "ви",
        "жу"
      ],
      [
        "ши",
        "на"
      ],
      [
        "п",
        "ля"
      ],
      [
        "т",
        "ъ"
      ],
      [
        "ис",
        "че"
      ],
      [
        "ше",
        "н"
      ],
      [
        "ру",
        "ба"
      ],
      [
        "изве",
        "стно"
      ],
      [
        "о",
        "сторо"
      ],
      [
        "все",
        "й"
      ],
      [
        "над",
        "цать"
      ],
      [
        "ми",
        "ли"
      ],
      [
        "рас",
        "су"
      ],
      [
        "скоре",
        "е"
      ],
      [
        "ти",
        "ли"
      ],
      [
        "юще",
        "й"
      ],
      [
        "ч",
        "ного"
      ],
      [
        "де",
        "ви"
      ],
      [
        "Алек",
        "се"
      ],
      [
        "нач",
        "аль"
      ],
      [
        "o",
        "u"
      ],
      [
        "ва",
        "ния"
      ],
      [
        "Па",
        "н"
      ],
      [
        "согла",
        "си"
      ],
      [
        "ва",
        "р"
      ],
      [
        "л",
        "ки"
      ],
      [
        "по",
        "мина"
      ],
      [
        "дно",
        "е"
      ],
      [
        "тель",
        "ным"
      ],
      [
        "ис",
        "ку"
      ],
      [
        "стви",
        "я"
      ],
      [
        "за",
        "тем"
      ],
      [
        "воло",
        "сы"
      ],
      [
        "му",
        "чи"
      ],
      [
        "К",
        "то"
      ],
      [
        "ни",
        "ком"
      ],
      [
        "зна",
        "чит"
      ],
      [
        "крас",
        "не"
      ],
      [
        "Ли",
        "т"
      ],
      [
        "м",
        "ною"
      ],
      [
        "со",
        "об"
      ],
      [
        "ча",
        "ми"
      ],
      [
        "л",
        "ка"
      ],
      [
        "по",
        "т"
      ],
      [
        "во",
        "обще"
      ],
      [
        "И",
        "ль"
      ],
      [
        "a",
        "n"
      ],
      [
        "ти",
        "лась"
      ],
      [
        "б",
        "ал"
      ],
      [
        "х",
        "ри"
      ],
      [
        "во",
        "круг"
      ],
      [
        "га",
        "р"
      ],
      [
        "Ле",
        "вин"
      ],
      [
        "ужа",
        "сно"
      ],
      [
        "ры",
        "х"
      ],
      [
        "ди",
        "я"
      ],
      [
        "на",
        "ши"
      ],
      [
        "сол",
        "нце"
      ],
      [
        "понима",
        "ю"
      ],
      [
        "о",
        "пусти"
      ],
      [
        "други",
        "е"
      ],
      [
        "отве",
        "т"
      ],
      [
        "соб",
        "стве"
      ],
      [
        "за",
        "говорил"
      ],
      [
        "сту",
        "пле"
      ],
      [
        "глу",
        "по"
      ],
      [
        "в",
        "на"
      ],
      [
        "за",
        "бы"
      ],
      [
        "ле",
        "ния"
      ],
      [
        "ск",
        "е"
      ],
      [
        "ж",
        "дал"
      ],
      [
        "ве",
        "сти"
      ],
      [
        "мы",
        "х"
      ],
      [
        "но",
        "г"
      ],
      [
        "Го",
        "во"
      ],
      [
        "сдел",
        "ал"
      ],
      [
        "з",
        "до"
      ],
      [
        "ль",
        "но"
      ],
      [
        "весь",
        "ма"
      ],
      [
        "Е",
        "му"
      ],
      [
        "те",
        "ра"
      ],
      [
        "л",
        "ѣ"
      ],
      [
        "лю",
        "блю"
      ],
      [
        "e",
        "r"
      ],
      [
        "ба",
        "ми"
      ],
      [
        "су",
        "дь"
      ],
      [
        "и",
        "дти"
      ],
      [
        "любо",
        "пыт"
      ],
      [
        "по",
        "кло"
      ],
      [
        "вши",
        "м"
      ],
      [
        "До",
        "л"
      ],
      [
        "Ф",
        "ран"
      ],
      [
        "р",
        "али"
      ],
      [
        "сто",
        "ла"
      ],
      [
        "у",
        "ва"
      ],
      [
        "се",
        "да"
      ],
      [
        "за",
        "ко"
      ],
      [
        "ж",
        "ки"
      ],
      [
        "м",
        "ноги"
      ],
      [
        "чрез",
        "вы"
      ],
      [
        "г",
        "ну"
      ],
      [
        "нно",
        "сть"
      ],
      [
        "н",
        "ке"
      ],
      [
        "ра",
        "д"
      ],
      [
        "взгля",
        "д"
      ],
      [
        "Ар",
        "ка"
      ],
      [
        "н",
        "ку"
      ],
      [
        "Г",
        "ла"
      ],
      [
        "з",
        "ри"
      ],
      [
        "образ",
        "ом"
      ],
      [
        "ю",
        "щего"
      ],
      [
        "мог",
        "ли"
      ],
      [
        "нно",
        "сти"
      ],
      [
        "мо",
        "ли"
      ],
      [
        "хоте",
        "ла"
      ],
      [
        "лу",
        "ю"
      ],
      [
        "щи",
        "м"
      ],
      [
        "по",
        "па"
      ],
      [
        "гру",
        "дь"
      ],
      [
        "бе",
        "ль"
      ],
      [
        "П",
        "ер"
      ],
      [
        "ка",
        "кого"
      ],
      [
        "сто",
        "лько"
      ],
      [
        "при",
        "шел"
      ],
      [
        "По",
        "сле"
      ],
      [
        "е",
        "дин"
      ],
      [
        "по",
        "смотрел"
      ],
      [
        "тре",
        "ть"
      ],
      [
        "Алек",
        "сей"
      ],
      [
        "д",
        "ней"
      ],
      [
        "ж",
        "ный"
      ],
      [
        "ж",
        "ным"
      ],
      [
        "на",
        "мере"
      ],
      [
        "раз",
        "уме"
      ],
      [
        "Ва",
        "силь"
      ],
      [
        "e",
        "n"
      ],
      [
        "Е",
        "ле"
      ],
      [
        "сты",
        "е"
      ],
      [
        "люби",
        "л"
      ],
      [
        "Ку",
        "ту"
      ],
      [
        "ж",
        "ь"
      ],
      [
        "ла",
        "д"
      ],
      [
        "у",
        "видел"
      ],
      [
        "ра",
        "й"
      ],
      [
        "мол",
        "чал"
      ],
      [
        "поня",
        "ть"
      ],
      [
        "о",
        "хот"
      ],
      [
        "вы",
        "ше"
      ],
      [
        "п",
        "ти"
      ],
      [
        "т",
        "р"
      ],
      [
        "у",
        "тра"
      ],
      [
        "у",
        "ма"
      ],
      [
        "зем",
        "лю"
      ],
      [
        "Ор",
        "тру"
      ],
      [
        "ла",
        "м"
      ],
      [
        "лов",
        "ко"
      ],
      [
        "ро",
        "зо"
      ],
      [
        "тельно",
        "е"
      ],
      [
        "сле",
        "зы"
      ],
      [
        "воль",
        "те"
      ],
      [
        "стари",
        "к"
      ],
      [
        "од",
        "ним"
      ],
      [
        "буду",
        "т"
      ],
      [
        "п",
        "лы"
      ],
      [
        "м",
        "но"
      ],
      [
        "мо",
        "же"
      ],
      [
        "Я",
        "ков"
      ],
      [
        "у",
        "глу"
      ],
      [
        "ста",
        "в"
      ],
      [
        "объя",
        "сни"
      ],
      [
        "к",
        "ти"
      ],
      [
        "за",
        "ди"
      ],
      [
        "ех",
        "али"
      ],
      [
        "го",
        "рь"
      ],
      [
        "во",
        "ю"
      ],
      [
        "тель",
        "ной"
      ],
      [
        "ре",
        "чи"
      ],
      [
        "испу",
        "га"
      ],
      [
        "ж",
        "ку"
      ],
      [
        "ш",
        "ала"
      ],
      [
        "че",
        "ния"
      ],
      [
        "не",
        "ния"
      ],
      [
        "че",
        "ской"
      ],
      [
        "со",
        "н"
      ],
      [
        "жи",
        "в"
      ],
      [
        "к",
        "ну"
      ],
      [
        "гу",
        "бер"
      ],
      [
        "стоя",
        "ла"
      ],
      [
        "ка",
        "рти"
      ],
      [
        "за",
        "клю"
      ],
      [
        "ча",
        "сов"
      ],
      [
        "мо",
        "го"
      ],
      [
        "слу",
        "ж"
      ],
      [
        "пи",
        "ро"
      ],
      [
        "и",
        "бо"
      ],
      [
        "но",
        "чи"
      ],
      [
        "мы",
        "м"
      ],
      [
        "Степа",
        "н"
      ],
      [
        "в",
        "до"
      ],
      [
        "ка",
        "кую"
      ],
      [
        "ло",
        "ва"
      ],
      [
        "ан",
        "гли"
      ],
      [
        "ре",
        "нь"
      ],
      [
        "од",
        "ном"
      ],
      [
        "сы",
        "на"
      ],
      [
        "Ната",
        "ша"
      ],
      [
        "щ",
        "ал"
      ],
      [
        "Г",
        "е"
      ],
      [
        "п",
        "али"
      ],
      [
        "в",
        "печат"
      ],
      [
        "ма",
        "на"
      ],
      [
        "Мо",
        "жет"
      ],
      [
        "у",
        "ча"
      ],
      [
        "самы",
        "й"
      ],
      [
        "да",
        "ния"
      ],
      [
        "коро",
        "т"
      ],
      [
        "р",
        "ался"
      ],
      [
        "те",
        "нь"
      ],
      [
        "холо",
        "д"
      ],
      [
        "и",
        "ми"
      ],
      [
        "п",
        "ли"
      ],
      [
        "ра",
        "х"
      ],
      [
        "проси",
        "л"
      ],
      [
        "госпо",
        "дин"
      ],
      [
        "стро",
        "го"
      ],
      [
        "поня",
        "л"
      ],
      [
        "раз",
        "ли"
      ],
      [
        "мину",
        "ты"
      ],
      [
        "Давы",
        "дов"
      ],
      [
        "ка",
        "ме"
      ],
      [
        "тре",
        "х"
      ],
      [
        "би",
        "ть"
      ],
      [
        "Ч",
        "ер"
      ],
      [
        "ж",
        "ные"
      ],
      [
        "жи",
        "м"
      ],
      [
        "голо",
        "вы"
      ],
      [
        "по",
        "казы"
      ],
      [
        "ж",
        "ной"
      ],
      [
        "то",
        "бой"
      ],
      [
        "ще",
        "е"
      ],
      [
        "да",
        "ет"
      ],
      [
        "вы",
        "рази"
      ],
      [
        "па",
        "н"
      ],
      [
        "женщи",
        "ны"
      ],
      [
        "даль",
        "ше"
      ],
      [
        "о",
        "ши"
      ],
      [
        "ч",
        "ок"
      ],
      [
        "дол",
        "жны"
      ],
      [
        "Ва",
        "н"
      ],
      [
        "ци",
        "ю"
      ],
      [
        "при",
        "ез"
      ],
      [
        "об",
        "я"
      ],
      [
        "друго",
        "е"
      ],
      [
        "l",
        "e"
      ],
      [
        "воз",
        "бу"
      ],
      [
        "к",
        "ле"
      ],
      [
        "г",
        "али"
      ],
      [
        "о",
        "пу"
      ],
      [
        "под",
        "ро"
      ],
      [
        "стра",
        "шно"
      ],
      [
        "ста",
        "я"
      ],
      [
        "ко",
        "ли"
      ],
      [
        "жи",
        "н"
      ],
      [
        "поло",
        "ви"
      ],
      [
        "непре",
        "менно"
      ],
      [
        "Б",
        "ер"
      ],
      [
        "мо",
        "их"
      ],
      [
        "с",
        "це"
      ],
      [
        "ра",
        "ми"
      ],
      [
        "ле",
        "жа"
      ],
      [
        "ста",
        "вил"
      ],
      [
        "в",
        "след"
      ],
      [
        "з",
        "доро"
      ],
      [
        "жда",
        "ть"
      ],
      [
        "писа",
        "ть"
      ],
      [
        "не",
        "обыкнове"
      ],
      [
        "ру",
        "бле"
      ],
      [
        "пе",
        "ра"
      ],
      [
        "сы",
        "н"
      ],
      [
        "заме",
        "ча"
      ],
      [
        "подня",
        "л"
      ],
      [
        "Кня",
        "зь"
      ],
      [
        "ва",
        "е"
      ],
      [
        "т",
        "ку"
      ],
      [
        "я",
        "вля"
      ],
      [
        "по",
        "кры"
      ],
      [
        "так",
        "же"
      ],
      [
        "спо",
        "соб"
      ],
      [
        "на",
        "з"
      ],
      [
        "на",
        "кло"
      ],
      [
        "об",
        "ре"
      ],
      [
        "ма",
        "не"
      ],
      [
        "бормо",
        "тал"
      ],
      [
        "вне",
        "зап"
      ],
      [
        "ра",
        "чи"
      ],
      [
        "до",
        "сти"
      ],
      [
        "бо",
        "л"
      ],
      [
        "при",
        "гла"
      ],
      [
        "ща",
        "ясь"
      ],
      [
        "че",
        "н"
      ],
      [
        "лы",
        "ми"
      ],
      [
        "зем",
        "ле"
      ],
      [
        "Петро",
        "вич"
      ],
      [
        "от",
        "прави"
      ],
      [
        "каза",
        "ть"
      ],
      [
        "П",
        "нин"
      ],
      [
        "по",
        "теря"
      ],
      [
        "не",
        "бо"
      ],
      [
        "П",
        "ре"
      ],
      [
        "на",
        "шего"
      ],
      [
        "во",
        "ды"
      ],
      [
        "гра",
        "ф"
      ],
      [
        "плать",
        "е"
      ],
      [
        "обя",
        "за"
      ],
      [
        "и",
        "дет"
      ],
      [
        "по",
        "казалось"
      ],
      [
        "сле",
        "г"
      ],
      [
        "Ка",
        "тери"
      ],
      [
        "слу",
        "шал"
      ],
      [
        "каз",
        "алась"
      ],
      [
        "друго",
        "го"
      ],
      [
        "по",
        "чувствовал"
      ],
      [
        "Х",
        "ри"
      ],
      [
        "име",
        "л"
      ],
      [
        "О",
        "б"
      ],
      [
        "и",
        "сти"
      ],
      [
        "доро",
        "ги"
      ],
      [
        "юще",
        "е"
      ],
      [
        "му",
        "зы"
      ],
      [
        "вер",
        "нулся"
      ],
      [
        "ду",
        "р"
      ],
      [
        "поло",
        "жение"
      ],
      [
        "тор",
        "же"
      ],
      [
        "из",
        "ви"
      ],
      [
        "жа",
        "р"
      ],
      [
        "са",
        "ди"
      ],
      [
        "ст",
        "ри"
      ],
      [
        "мо",
        "в"
      ],
      [
        "два",
        "дцать"
      ],
      [
        "же",
        "ни"
      ],
      [
        "мо",
        "ему"
      ],
      [
        "са",
        "д"
      ],
      [
        "о",
        "пре"
      ],
      [
        "На",
        "ста"
      ],
      [
        "ме",
        "нт"
      ],
      [
        "под",
        "ле"
      ],
      [
        "о",
        "гля"
      ],
      [
        "при",
        "ме"
      ],
      [
        "зна",
        "я"
      ],
      [
        "стве",
        "н"
      ],
      [
        "це",
        "м"
      ],
      [
        "до",
        "ктор"
      ],
      [
        "лю",
        "дя"
      ],
      [
        "На",
        "конец"
      ],
      [
        "Наста",
        "сь"
      ],
      [
        "хот",
        "ите"
      ],
      [
        "на",
        "и"
      ],
      [
        "ре",
        "чь"
      ],
      [
        "вре",
        "ме"
      ],
      [
        "по",
        "стоя"
      ],
      [
        "офи",
        "цер"
      ],
      [
        "В",
        "ер"
      ],
      [
        "не",
        "приятно"
      ],
      [
        "же",
        "ны"
      ],
      [
        "са",
        "по"
      ],
      [
        "ха",
        "рак"
      ],
      [
        "бра",
        "ть"
      ],
      [
        "на",
        "ве"
      ],
      [
        "пе",
        "ч"
      ],
      [
        "кро",
        "ви"
      ],
      [
        "деся",
        "ть"
      ],
      [
        "вя",
        "з"
      ],
      [
        "i",
        "s"
      ],
      [
        "повто",
        "ря"
      ],
      [
        "слег",
        "ка"
      ],
      [
        "ту",
        "р"
      ],
      [
        "На",
        "таль"
      ],
      [
        "не",
        "подви"
      ],
      [
        "ма",
        "с"
      ],
      [
        "ку",
        "ла"
      ],
      [
        "смея",
        "лся"
      ],
      [
        "с",
        "ред"
      ],
      [
        "бе",
        "жал"
      ],
      [
        "голо",
        "ва"
      ],
      [
        "солда",
        "т"
      ],
      [
        "вы",
        "шла"
      ],
      [
        "Нехлю",
        "дов"
      ],
      [
        "ще",
        "н"
      ],
      [
        "здо",
        "ров"
      ],
      [
        "ст",
        "ры"
      ],
      [
        "жи",
        "й"
      ],
      [
        "де",
        "я"
      ],
      [
        "ве",
        "роятно"
      ],
      [
        "голо",
        "ве"
      ],
      [
        "у",
        "мер"
      ],
      [
        "у",
        "знал"
      ],
      [
        "ше",
        "к"
      ],
      [
        "Ва",
        "сили"
      ],
      [
        "нно",
        "му"
      ],
      [
        "про",
        "шло"
      ],
      [
        "ду",
        "шно"
      ],
      [
        "ши",
        "не"
      ],
      [
        "ва",
        "ние"
      ],
      [
        "ня",
        "х"
      ],
      [
        "не",
        "чего"
      ],
      [
        "при",
        "нима"
      ],
      [
        "госпо",
        "да"
      ],
      [
        "до",
        "р"
      ],
      [
        "у",
        "з"
      ],
      [
        "р",
        "ала"
      ],
      [
        "не",
        "чно"
      ],
      [
        "стоя",
        "ли"
      ],
      [
        "же",
        "й"
      ],
      [
        "му",
        "ю"
      ],
      [
        "ста",
        "ть"
      ],
      [
        "ско",
        "чил"
      ],
      [
        "чи",
        "й"
      ],
      [
        "приба",
        "вил"
      ],
      [
        "н",
        "та"
      ],
      [
        "ни",
        "ку"
      ],
      [
        "во",
        "обра"
      ],
      [
        "ч",
        "кой"
      ],
      [
        "осторо",
        "жно"
      ],
      [
        "н",
        "че"
      ],
      [
        "чет",
        "вер"
      ],
      [
        "п",
        "раз"
      ],
      [
        "ни",
        "как"
      ],
      [
        "В",
        "прочем"
      ],
      [
        "е",
        "я"
      ],
      [
        "н",
        "ди"
      ],
      [
        "ко",
        "ль"
      ],
      [
        "му",
        "жа"
      ],
      [
        "пе",
        "л"
      ],
      [
        "по",
        "ез"
      ],
      [
        "те",
        "ло"
      ],
      [
        "сло",
        "ви"
      ],
      [
        "от",
        "ы"
      ],
      [
        "за",
        "щи"
      ],
      [
        "за",
        "пла"
      ],
      [
        "но",
        "с"
      ],
      [
        "тре",
        "н"
      ],
      [
        "о",
        "го"
      ],
      [
        "у",
        "ро"
      ],
      [
        "не",
        "жно"
      ],
      [
        "к",
        "т"
      ],
      [
        "ри",
        "на"
      ],
      [
        "гово",
        "р"
      ],
      [
        "Че",
        "рез"
      ],
      [
        "не",
        "ние"
      ],
      [
        "при",
        "сут"
      ],
      [
        "ге",
        "нер"
      ],
      [
        "реши",
        "л"
      ],
      [
        "на",
        "ли"
      ],
      [
        "о",
        "стро"
      ],
      [
        "ла",
        "в"
      ],
      [
        "вшие",
        "ся"
      ],
      [
        "Передо",
        "нов"
      ],
      [
        "д",
        "ливо"
      ],
      [
        "чи",
        "сто"
      ],
      [
        "ар",
        "ми"
      ],
      [
        "дете",
        "й"
      ],
      [
        ".",
        ")"
      ],
      [
        "х",
        "ал"
      ],
      [
        "пло",
        "ща"
      ],
      [
        "ле",
        "жал"
      ],
      [
        "Д",
        "ро"
      ],
      [
        "у",
        "до"
      ],
      [
        "ве",
        "чера"
      ],
      [
        "ва",
        "жно"
      ],
      [
        "се",
        "ку"
      ],
      [
        "се",
        "мей"
      ],
      [
        "ря",
        "х"
      ],
      [
        "у",
        "сили"
      ],
      [
        "тру",
        "дно"
      ],
      [
        "б",
        "ля"
      ],
      [
        "си",
        "дела"
      ],
      [
        "до",
        "га"
      ],
      [
        "уже",
        "ли"
      ],
      [
        "мо",
        "на"
      ],
      [
        "ру",
        "ке"
      ],
      [
        "Ш",
        "а"
      ],
      [
        "ти",
        "н"
      ],
      [
        "воскли",
        "кнул"
      ],
      [
        "л",
        "ъ"
      ],
      [
        "не",
        "тся"
      ],
      [
        "раз",
        "о"
      ],
      [
        "слу",
        "чай"
      ],
      [
        "П",
        "и"
      ],
      [
        "з",
        "ет"
      ],
      [
        "п",
        "ь"
      ],
      [
        "про",
        "фе"
      ],
      [
        "сто",
        "ле"
      ],
      [
        "по",
        "ры"
      ],
      [
        "ок",
        "но"
      ],
      [
        "лоша",
        "дь"
      ],
      [
        "на",
        "й"
      ],
      [
        "за",
        "ку"
      ],
      [
        "слу",
        "ши"
      ],
      [
        "оче",
        "видно"
      ],
      [
        "дере",
        "в"
      ],
      [
        "исче",
        "з"
      ],
      [
        "вс",
        "пы"
      ],
      [
        "чувст",
        "ва"
      ],
      [
        "а",
        "ре"
      ],
      [
        "се",
        "ре"
      ],
      [
        "д",
        "ю"
      ],
      [
        "с",
        "на"
      ],
      [
        "горо",
        "де"
      ],
      [
        "Т",
        "ри"
      ],
      [
        "до",
        "че"
      ],
      [
        "кто",
        "ра"
      ],
      [
        "воспо",
        "мина"
      ],
      [
        "мер",
        "т"
      ],
      [
        "Про",
        "коф"
      ],
      [
        "б",
        "ѣ"
      ],
      [
        "ц",
        "вет"
      ],
      [
        "по",
        "во"
      ],
      [
        "ру",
        "к"
      ],
      [
        "при",
        "ехал"
      ],
      [
        "щи",
        "к"
      ],
      [
        "люби",
        "т"
      ],
      [
        "ку",
        "р"
      ],
      [
        "r",
        "e"
      ],
      [
        "цо",
        "м"
      ],
      [
        "у",
        "те"
      ],
      [
        "госпо",
        "ди"
      ],
      [
        "но",
        "гу"
      ],
      [
        "ти",
        "т"
      ],
      [
        "лоша",
        "дей"
      ],
      [
        "ка",
        "ть"
      ],
      [
        "из",
        "мени"
      ],
      [
        "Е",
        "ще"
      ],
      [
        "кон",
        "це"
      ],
      [
        "за",
        "бот"
      ],
      [
        "ды",
        "м"
      ],
      [
        "б",
        "ря"
      ],
      [
        "улыб",
        "нулся"
      ],
      [
        "С",
        "он"
      ],
      [
        "же",
        "сто"
      ],
      [
        "га",
        "ри"
      ],
      [
        "х",
        "ла"
      ],
      [
        "доро",
        "ге"
      ],
      [
        "т",
        "али"
      ],
      [
        "сторо",
        "н"
      ],
      [
        "Б",
        "ез"
      ],
      [
        "да",
        "ми"
      ],
      [
        "Ма",
        "ка"
      ],
      [
        "хоче",
        "шь"
      ],
      [
        "д",
        "ки"
      ],
      [
        "обра",
        "тился"
      ],
      [
        "п",
        "ливо"
      ],
      [
        "вся",
        "кий"
      ],
      [
        "не",
        "се"
      ],
      [
        "тель",
        "ства"
      ],
      [
        "успе",
        "л"
      ],
      [
        "вече",
        "ром"
      ],
      [
        "ло",
        "б"
      ],
      [
        "ния",
        "х"
      ],
      [
        "сте",
        "пе"
      ],
      [
        "шь",
        "ся"
      ],
      [
        "В",
        "рон"
      ],
      [
        "во",
        "р"
      ],
      [
        "бле",
        "стя"
      ],
      [
        "ина",
        "че"
      ],
      [
        "у",
        "шел"
      ],
      [
        "до",
        "му"
      ],
      [
        "че",
        "ство"
      ],
      [
        "воз",
        "ра"
      ],
      [
        "Бо",
        "ри"
      ],
      [
        "ст",
        "в"
      ],
      [
        "от",
        "да"
      ],
      [
        "тре",
        "бо"
      ],
      [
        "по",
        "е"
      ],
      [
        "при",
        "бли"
      ],
      [
        "ба",
        "тю"
      ],
      [
        "дь",
        "я"
      ],
      [
        "бра",
        "та"
      ],
      [
        "креп",
        "ко"
      ],
      [
        "к",
        "лу"
      ],
      [
        "го",
        "ду"
      ],
      [
        "Але",
        "ша"
      ],
      [
        "все",
        "ми"
      ],
      [
        "серд",
        "ца"
      ],
      [
        "о",
        "скор"
      ],
      [
        "ни",
        "на"
      ],
      [
        "ри",
        "я"
      ],
      [
        "се",
        "ла"
      ],
      [
        "ну",
        "ться"
      ],
      [
        "сло",
        "вом"
      ],
      [
        "вспомни",
        "л"
      ],
      [
        "ра",
        "за"
      ],
      [
        "ни",
        "кого"
      ],
      [
        "ту",
        "шка"
      ],
      [
        "взгля",
        "дом"
      ],
      [
        "вших",
        "ся"
      ],
      [
        "бе",
        "спо"
      ],
      [
        "ши",
        "н"
      ],
      [
        "вши",
        "ми"
      ],
      [
        "о",
        "гляды"
      ],
      [
        "На",
        "до"
      ],
      [
        "при",
        "ходи"
      ],
      [
        "гла",
        "в"
      ],
      [
        "горо",
        "да"
      ],
      [
        "дене",
        "г"
      ],
      [
        "н",
        "ца"
      ],
      [
        "ка",
        "пи"
      ],
      [
        "Та",
        "м"
      ],
      [
        "зу",
        "бы"
      ],
      [
        "О",
        "дин"
      ],
      [
        "во",
        "ли"
      ],
      [
        "ри",
        "н"
      ],
      [
        "те",
        "ц"
      ],
      [
        "суще",
        "ство"
      ],
      [
        "у",
        "слы"
      ],
      [
        "ш",
        "кой"
      ],
      [
        "на",
        "блю"
      ],
      [
        "ут",
        "ром"
      ],
      [
        "то",
        "ю"
      ],
      [
        "рь",
        "ю"
      ],
      [
        "бо",
        "м"
      ],
      [
        "Го",
        "спо"
      ],
      [
        "пере",
        "ди"
      ],
      [
        "впол",
        "не"
      ],
      [
        "бо",
        "к"
      ],
      [
        "Сам",
        "гина"
      ],
      [
        "не",
        "при"
      ],
      [
        "ка",
        "ких"
      ],
      [
        "со",
        "еди"
      ],
      [
        "чи",
        "ла"
      ],
      [
        "ч",
        "ная"
      ],
      [
        "но",
        "во"
      ],
      [
        "бы",
        "вало"
      ],
      [
        "сть",
        "е"
      ],
      [
        "в",
        "лю"
      ],
      [
        "у",
        "зна"
      ],
      [
        "за",
        "бо"
      ],
      [
        "в",
        "низ"
      ],
      [
        "з",
        "но"
      ],
      [
        "ни",
        "ла"
      ],
      [
        "се",
        "я"
      ],
      [
        "дол",
        "жна"
      ],
      [
        "е",
        "жели"
      ],
      [
        "ку",
        "п"
      ],
      [
        "А",
        "кси"
      ],
      [
        "ла",
        "н"
      ],
      [
        "за",
        "нима"
      ],
      [
        "чи",
        "е"
      ],
      [
        "ста",
        "рый"
      ],
      [
        "лю",
        "без"
      ],
      [
        "па",
        "х"
      ],
      [
        "г",
        "не"
      ],
      [
        "е",
        "л"
      ],
      [
        "то",
        "ва"
      ],
      [
        "ду",
        "ра"
      ],
      [
        "че",
        "ский"
      ],
      [
        "у",
        "лице"
      ],
      [
        "выра",
        "жение"
      ],
      [
        "ти",
        "лись"
      ],
      [
        "споко",
        "и"
      ],
      [
        "но",
        "гами"
      ],
      [
        "от",
        "ра"
      ],
      [
        "ши",
        "ть"
      ],
      [
        "Ч",
        "и"
      ],
      [
        "я",
        "м"
      ],
      [
        "ли",
        "цу"
      ],
      [
        "ех",
        "ала"
      ],
      [
        "торо",
        "пливо"
      ],
      [
        "гим",
        "на"
      ],
      [
        "э",
        "к"
      ],
      [
        "те",
        "й"
      ],
      [
        "ви",
        "дела"
      ],
      [
        "по",
        "цело"
      ],
      [
        "от",
        "ли"
      ],
      [
        "сча",
        "сти"
      ],
      [
        "по",
        "жи"
      ],
      [
        "К",
        "ре"
      ],
      [
        "на",
        "пример"
      ],
      [
        "Фе",
        "доро"
      ],
      [
        "си",
        "лы"
      ],
      [
        "доро",
        "гу"
      ],
      [
        "вспо",
        "мина"
      ],
      [
        "П",
        "ра"
      ],
      [
        "я",
        "х"
      ],
      [
        "деся",
        "ти"
      ],
      [
        "край",
        "ней"
      ],
      [
        "Т",
        "ро"
      ],
      [
        "я",
        "с"
      ],
      [
        "че",
        "ского"
      ],
      [
        "ди",
        "ва"
      ],
      [
        "жде",
        "ние"
      ],
      [
        "друго",
        "м"
      ],
      [
        "л",
        "ку"
      ],
      [
        "из",
        "бе"
      ],
      [
        "П",
        "ье"
      ],
      [
        "Мар",
        "ты"
      ],
      [
        "смер",
        "ть"
      ],
      [
        "коро",
        "ле"
      ],
      [
        "лоша",
        "ди"
      ],
      [
        "бары",
        "ш"
      ],
      [
        "де",
        "ти"
      ],
      [
        "вы",
        "с"
      ],
      [
        "па",
        "рти"
      ],
      [
        "чески",
        "е"
      ],
      [
        "К",
        "ру"
      ],
      [
        "же",
        "нный"
      ],
      [
        "Пет",
        "ровна"
      ],
      [
        "чески",
        "х"
      ],
      [
        "Мар",
        "гари"
      ],
      [
        "по",
        "ля"
      ],
      [
        "ни",
        "ц"
      ],
      [
        "тель",
        "ного"
      ],
      [
        "стви",
        "ем"
      ],
      [
        "на",
        "шей"
      ],
      [
        "со",
        "ва"
      ],
      [
        "ня",
        "л"
      ],
      [
        "отве",
        "чала"
      ],
      [
        "вше",
        "му"
      ],
      [
        "и",
        "мя"
      ],
      [
        "по",
        "шла"
      ],
      [
        "сто",
        "лу"
      ],
      [
        "а",
        "д"
      ],
      [
        "в",
        "место"
      ],
      [
        "н",
        "на"
      ],
      [
        "де",
        "тся"
      ],
      [
        "хо",
        "да"
      ],
      [
        "ши",
        "л"
      ],
      [
        "образ",
        "о"
      ],
      [
        "тыся",
        "ч"
      ],
      [
        "ду",
        "шу"
      ],
      [
        "з",
        "ра"
      ],
      [
        "ра",
        "ди"
      ],
      [
        "про",
        "с"
      ],
      [
        "дя",
        "т"
      ],
      [
        "на",
        "у"
      ],
      [
        "да",
        "ма"
      ],
      [
        "бу",
        "дем"
      ],
      [
        "тре",
        "пе"
      ],
      [
        "мог",
        "ло"
      ],
      [
        "ра",
        "м"
      ],
      [
        "со",
        "сед"
      ],
      [
        "су",
        "хо"
      ],
      [
        "гу",
        "ля"
      ],
      [
        "которо",
        "му"
      ],
      [
        "де",
        "ля"
      ],
      [
        "вя",
        "за"
      ],
      [
        "пло",
        "хо"
      ],
      [
        "други",
        "м"
      ],
      [
        "поспе",
        "шно"
      ],
      [
        "1",
        "9"
      ],
      [
        "на",
        "шел"
      ],
      [
        "не",
        "счаст"
      ],
      [
        "бы",
        "вает"
      ],
      [
        "ну",
        "т"
      ],
      [
        "со",
        "бе"
      ],
      [
        "бе",
        "ло"
      ],
      [
        "б",
        "лу"
      ],
      [
        "у",
        "знать"
      ],
      [
        "ре",
        "волю"
      ],
      [
        "ли",
        "бо"
      ],
      [
        "ше",
        "ю"
      ],
      [
        "муж",
        "чи"
      ],
      [
        "об",
        "ма"
      ],
      [
        "ду",
        "мы"
      ],
      [
        "другу",
        "ю"
      ],
      [
        "вал",
        "ь"
      ],
      [
        "серди",
        "то"
      ],
      [
        "твер",
        "до"
      ],
      [
        "ва",
        "ш"
      ],
      [
        "га",
        "й"
      ],
      [
        "чно",
        "е"
      ],
      [
        "на",
        "зна"
      ],
      [
        "ре",
        "в"
      ],
      [
        "необходи",
        "мо"
      ],
      [
        "Р",
        "е"
      ],
      [
        "об",
        "стоя"
      ],
      [
        "сле",
        "до"
      ],
      [
        "i",
        "n"
      ],
      [
        "крас",
        "но"
      ],
      [
        "С",
        "тра"
      ],
      [
        "пре",
        "вос"
      ],
      [
        "То",
        "гда"
      ],
      [
        "р",
        "ту"
      ],
      [
        "те",
        "ла"
      ],
      [
        "взгля",
        "нул"
      ],
      [
        "зем",
        "ли"
      ],
      [
        "не",
        "вольно"
      ],
      [
        "ния",
        "ми"
      ],
      [
        "ост",
        "аль"
      ],
      [
        "х",
        "ала"
      ],
      [
        "ча",
        "ю"
      ],
      [
        "но",
        "сть"
      ],
      [
        "до",
        "чь"
      ],
      [
        "соб",
        "ственно"
      ],
      [
        "сооб",
        "щи"
      ],
      [
        "со",
        "бра"
      ],
      [
        "пя",
        "ти"
      ],
      [
        "случи",
        "лось"
      ],
      [
        "л",
        "ал"
      ],
      [
        "с",
        "мысле"
      ],
      [
        "во",
        "спи"
      ],
      [
        "бе",
        "спокой"
      ],
      [
        "кня",
        "ги"
      ],
      [
        "не",
        "ц"
      ],
      [
        "И",
        "но"
      ],
      [
        "ди",
        "ла"
      ],
      [
        "Ро",
        "стов"
      ],
      [
        "н",
        "ду"
      ],
      [
        "О",
        "че"
      ],
      [
        "ста",
        "ти"
      ],
      [
        "повто",
        "рил"
      ],
      [
        "жела",
        "я"
      ],
      [
        "Ф",
        "или"
      ],
      [
        "ве",
        "щи"
      ],
      [
        "ме",
        "ц"
      ],
      [
        "тно",
        "е"
      ],
      [
        "Де",
        "ни"
      ],
      [
        "на",
        "вли"
      ],
      [
        "ты",
        "вал"
      ],
      [
        "за",
        "ба"
      ],
      [
        "ва",
        "шего"
      ],
      [
        "ца",
        "р"
      ],
      [
        "ступи",
        "л"
      ],
      [
        "з",
        "да"
      ],
      [
        "у",
        "ста"
      ]
    ]
  }
}